{"!": 0, "\"": 1, "#": 2, "$": 3, "%": 4, "&": 5, "'": 6, "(": 7, ")": 8, "*": 9, "+": 10, ",": 11, "-": 12, ".": 13, "/": 14, "0": 15, "1": 16, "2": 17, "3": 18, "4": 19, "5": 20, "6": 21, "7": 22, "8": 23, "9": 24, ":": 25, ";": 26, "<": 27, "=": 28, ">": 29, "?": 30, "@": 31, "A": 32, "B": 33, "C": 34, "D": 35, "E": 36, "F": 37, "G": 38, "H": 39, "I": 40, "J": 41, "K": 42, "L": 43, "M": 44, "N": 45, "O": 46, "P": 47, "Q": 48, "R": 49, "S": 50, "T": 51, "U": 52, "V": 53, "W": 54, "X": 55, "Y": 56, "Z": 57, "[": 58, "\\": 59, "]": 60, "^": 61, "_": 62, "`": 63, "a": 64, "b": 65, "c": 66, "d": 67, "e": 68, "f": 69, "g": 70, "h": 71, "i": 72, "j": 73, "k": 74, "l": 75, "m": 76, "n": 77, "o": 78, "p": 79, "q": 80, "r": 81, "s": 82, "t": 83, "u": 84, "v": 85, "w": 86, "x": 87, "y": 88, "z": 89, "{": 90, "|": 91, "}": 92, "~": 93, "¡": 94, "¢": 95, "£": 96, "¤": 97, "¥": 98, "¦": 99, "§": 100, "¨": 101, "©": 102, "ª": 103, "«": 104, "¬": 105, "®": 106, "¯": 107, "°": 108, "±": 109, "²": 110, "³": 111, "´": 112, "µ": 113, "¶": 114, "·": 115, "¸": 116, "¹": 117, "º": 118, "»": 119, "¼": 120, "½": 121, "¾": 122, "¿": 123, "À": 124, "Á": 125, "Â": 126, "Ã": 127, "Ä": 128, "Å": 129, "Æ": 130, "Ç": 131, "È": 132, "É": 133, "Ê": 134, "Ë": 135, "Ì": 136, "Í": 137, "Î": 138, "Ï": 139, "Ð": 140, "Ñ": 141, "Ò": 142, "Ó": 143, "Ô": 144, "Õ": 145, "Ö": 146, "×": 147, "Ø": 148, "Ù": 149, "Ú": 150, "Û": 151, "Ü": 152, "Ý": 153, "Þ": 154, "ß": 155, "à": 156, "á": 157, "â": 158, "ã": 159, "ä": 160, "å": 161, "æ": 162, "ç": 163, "è": 164, "é": 165, "ê": 166, "ë": 167, "ì": 168, "í": 169, "î": 170, "ï": 171, "ð": 172, "ñ": 173, "ò": 174, "ó": 175, "ô": 176, "õ": 177, "ö": 178, "÷": 179, "ø": 180, "ù": 181, "ú": 182, "û": 183, "ü": 184, "ý": 185, "þ": 186, "ÿ": 187, "Ā": 188, "ā": 189, "Ă": 190, "ă": 191, "Ą": 192, "ą": 193, "Ć": 194, "ć": 195, "Ĉ": 196, "ĉ": 197, "Ċ": 198, "ċ": 199, "Č": 200, "č": 201, "Ď": 202, "ď": 203, "Đ": 204, "đ": 205, "Ē": 206, "ē": 207, "Ĕ": 208, "ĕ": 209, "Ė": 210, "ė": 211, "Ę": 212, "ę": 213, "Ě": 214, "ě": 215, "Ĝ": 216, "ĝ": 217, "Ğ": 218, "ğ": 219, "Ġ": 220, "ġ": 221, "Ģ": 222, "ģ": 223, "Ĥ": 224, "ĥ": 225, "Ħ": 226, "ħ": 227, "Ĩ": 228, "ĩ": 229, "Ī": 230, "ī": 231, "Ĭ": 232, "ĭ": 233, "Į": 234, "į": 235, "İ": 236, "ı": 237, "Ĳ": 238, "ĳ": 239, "Ĵ": 240, "ĵ": 241, "Ķ": 242, "ķ": 243, "ĸ": 244, "Ĺ": 245, "ĺ": 246, "Ļ": 247, "ļ": 248, "Ľ": 249, "ľ": 250, "Ŀ": 251, "ŀ": 252, "Ł": 253, "ł": 254, "Ń": 255, "ĠĠ": 256, "ĠĠĠĠ": 257, "in": 258, "Ġt": 259, "ĠĠĠĠĠĠĠĠ": 260, "er": 261, "ĠĠĠ": 262, "on": 263, "Ġa": 264, "re": 265, "at": 266, "st": 267, "en": 268, "or": 269, "Ġth": 270, "ĊĊ": 271, "Ġc": 272, "le": 273, "Ġs": 274, "it": 275, "an": 276, "ar": 277, "al": 278, "Ġthe": 279, ";Ċ": 280, "Ġp": 281, "Ġf": 282, "ou": 283, "Ġ=": 284, "is": 285, "ĠĠĠĠĠĠĠ": 286, "ing": 287, "es": 288, "Ġw": 289, "ion": 290, "ed": 291, "ic": 292, "Ġb": 293, "Ġd": 294, "et": 295, "Ġm": 296, "Ġo": 297, "ĉĉ": 298, "ro": 299, "as": 300, "el": 301, "ct": 302, "nd": 303, "Ġin": 304, "Ġh": 305, "ent": 306, "id": 307, "Ġn": 308, "am": 309, "ĠĠĠĠĠĠĠĠĠĠĠ": 310, "Ġto": 311, "Ġre": 312, "--": 313, "Ġ{": 314, "Ġof": 315, "om": 316, ");Ċ": 317, "im": 318, "čĊ": 319, "Ġ(": 320, "il": 321, "//": 322, "Ġand": 323, "ur": 324, "se": 325, "Ġl": 326, "ex": 327, "ĠS": 328, "ad": 329, "Ġ\"": 330, "ch": 331, "ut": 332, "if": 333, "**": 334, "Ġ}": 335, "em": 336, "ol": 337, "ĠĠĠĠĠĠĠĠĠĠĠĠĠĠĠĠ": 338, "th": 339, ")Ċ": 340, "Ġ{Ċ": 341, "Ġg": 342, "ig": 343, "iv": 344, ",Ċ": 345, "ce": 346, "od": 347, "Ġv": 348, "ate": 349, "ĠT": 350, "ag": 351, "ay": 352, "Ġ*": 353, "ot": 354, "us": 355, "ĠC": 356, "Ġst": 357, "ĠI": 358, "un": 359, "ul": 360, "ue": 361, "ĠA": 362, "ow": 363, "Ġ'": 364, "ew": 365, "Ġ<": 366, "ation": 367, "()": 368, "Ġfor": 369, "ab": 370, "ort": 371, "um": 372, "ame": 373, "Ġis": 374, "pe": 375, "tr": 376, "ck": 377, "âĢ": 378, "Ġy": 379, "ist": 380, "----": 381, ".ĊĊ": 382, "he": 383, "Ġe": 384, "lo": 385, "ĠM": 386, "Ġbe": 387, "ers": 388, "Ġon": 389, "Ġcon": 390, "ap": 391, "ub": 392, "ĠP": 393, "ĠĠĠĠĠĠĠĠĠĠĠĠĠĠĠ": 394, "ass": 395, "int": 396, ">Ċ": 397, "ly": 398, "urn": 399, "Ġ$": 400, ";ĊĊ": 401, "av": 402, "port": 403, "ir": 404, "->": 405, "nt": 406, "ction": 407, "end": 408, "Ġde": 409, "ith": 410, "out": 411, "turn": 412, "our": 413, "ĠĠĠĠĠ": 414, "lic": 415, "res": 416, "pt": 417, "==": 418, "Ġthis": 419, "Ġwh": 420, "Ġif": 421, "ĠD": 422, "ver": 423, "age": 424, "ĠB": 425, "ht": 426, "ext": 427, "=\"": 428, "Ġthat": 429, "****": 430, "ĠR": 431, "Ġit": 432, "ess": 433, "ĠF": 434, "Ġr": 435, "os": 436, "and": 437, "Ġas": 438, "ect": 439, "ke": 440, "rom": 441, "Ġ//": 442, "con": 443, "ĠL": 444, "(\"": 445, "qu": 446, "lass": 447, "Ġwith": 448, "iz": 449, "de": 450, "ĠN": 451, "Ġal": 452, "op": 453, "up": 454, "get": 455, "Ġ}Ċ": 456, "ile": 457, "Ġan": 458, "ata": 459, "ore": 460, "ri": 461, "Ġpro": 462, ";čĊ": 463, "ĉĉĉĉ": 464, "ter": 465, "ain": 466, "ĠW": 467, "ĠE": 468, "Ġcom": 469, "Ġreturn": 470, "art": 471, "ĠH": 472, "ack": 473, "import": 474, "ublic": 475, "Ġor": 476, "est": 477, "ment": 478, "ĠG": 479, "able": 480, "Ġ-": 481, "ine": 482, "ill": 483, "ind": 484, "ere": 485, "::": 486, "ity": 487, "Ġ+": 488, "Ġtr": 489, "elf": 490, "ight": 491, "('": 492, "orm": 493, "ult": 494, "str": 495, "..": 496, "\",": 497, "Ġyou": 498, "ype": 499, "pl": 500, "Ġnew": 501, "Ġj": 502, "ĠĠĠĠĠĠĠĠĠĠĠĠĠĠĠĠĠĠĠ": 503, "Ġfrom": 504, "Ġex": 505, "ĠO": 506, "ld": 507, "Ġ[": 508, "oc": 509, ":Ċ": 510, "Ġse": 511, "Ġle": 512, "--------": 513, ".s": 514, "{Ċ": 515, "',": 516, "ant": 517, "Ġat": 518, "ase": 519, ".c": 520, "Ġch": 521, "</": 522, "ave": 523, "ang": 524, "Ġare": 525, "Ġint": 526, "âĢĻ": 527, "_t": 528, "ert": 529, "ial": 530, "act": 531, "}Ċ": 532, "ive": 533, "ode": 534, "ost": 535, "Ġclass": 536, "Ġnot": 537, "og": 538, "ord": 539, "alue": 540, "all": 541, "ff": 542, "();Ċ": 543, "ont": 544, "ime": 545, "are": 546, "ĠU": 547, "Ġpr": 548, "Ġ:": 549, "ies": 550, "ize": 551, "ure": 552, "Ġby": 553, "ire": 554, "Ġ}ĊĊ": 555, ".p": 556, "Ġsh": 557, "ice": 558, "ast": 559, "ption": 560, "tring": 561, "ok": 562, "__": 563, "cl": 564, "##": 565, "Ġhe": 566, "ard": 567, ").": 568, "Ġ@": 569, "iew": 570, "ĉĉĉ": 571, "Ġwas": 572, "ip": 573, "this": 574, "Ġu": 575, "ĠThe": 576, "ide": 577, "ace": 578, "ib": 579, "ac": 580, "rou": 581, "Ġwe": 582, "ject": 583, "Ġpublic": 584, "ak": 585, "ve": 586, "ath": 587, "oid": 588, "Ġ=>": 589, "ust": 590, "que": 591, "Ġres": 592, "))": 593, "'s": 594, "Ġk": 595, "ans": 596, "yst": 597, "unction": 598, "********": 599, "Ġi": 600, "Ġus": 601, "pp": 602, "one": 603, "ail": 604, "====": 605, "name": 606, "Ġstr": 607, "Ġ/": 608, "Ġ&": 609, "ach": 610, "div": 611, "ystem": 612, "ell": 613, "Ġhave": 614, "err": 615, "ould": 616, "ull": 617, "pon": 618, "ĠJ": 619, "_p": 620, "Ġ==": 621, "ign": 622, "St": 623, ".Ċ": 624, "Ġpl": 625, ");ĊĊ": 626, "form": 627, "put": 628, "ount": 629, "}ĊĊ": 630, "dd": 631, "ite": 632, "Ġget": 633, "rr": 634, "ome": 635, "ĠâĢ": 636, "aram": 637, "cc": 638, "Ġ*/": 639, "ER": 640, "In": 641, "les": 642, "_s": 643, "ong": 644, "ie": 645, "Ġcan": 646, "ĠV": 647, "erv": 648, "pr": 649, "Ġun": 650, "row": 651, "ber": 652, "Ġdo": 653, "ll": 654, "Ġel": 655, "Ġself": 656, "ated": 657, "ary": 658, "Ġ.": 659, "']": 660, "ud": 661, "Ġen": 662, "ĠTh": 663, "ĠĠĠĠĠĠĠĠĠĠĠĠĠĠĠĠĠĠĠĠĠĠĠ": 664, "te": 665, "_c": 666, "uct": 667, "Ġab": 668, "ork": 669, ".get": 670, "Ġ#": 671, "aw": 672, "ress": 673, "ob": 674, "Name": 675, "app": 676, "['": 677, "Ġall": 678, "ory": 679, "ition": 680, "ance": 681, "ear": 682, "Ġcont": 683, "vent": 684, "ia": 685, "Ġwill": 686, "IN": 687, "ĠĠĠĠĠĠĠĠĠ": 688, "return": 689, "Ġ</": 690, "data": 691, ")ĊĊ": 692, "Re": 693, "ple": 694, "ild": 695, "ther": 696, "Ġyour": 697, "\"Ċ": 698, "($": 699, "Ġout": 700, "),": 701, "Ġhas": 702, "String": 703, "so": 704, "Ġup": 705, "ax": 706, "Ġdef": 707, "Ġbo": 708, "ge": 709, "alse": 710, "ON": 711, "per": 712, "ich": 713, "Ġbut": 714, "ĠĊ": 715, "Ġ_": 716, "_m": 717, "add": 718, "quest": 719, "odel": 720, "self": 721, "ery": 722, "ft": 723, "ens": 724, "////": 725, "ake": 726, ".C": 727, "Ġgo": 728, "Ġfunction": 729, "ĠK": 730, "ivate": 731, "Ġim": 732, "Ġconst": 733, ".t": 734, "Ġ*/Ċ": 735, ");čĊ": 736, "Ġvoid": 737, "Ġset": 738, "ĠSystem": 739, "cri": 740, "()Ċ": 741, "li": 742, "ĉif": 743, ".m": 744, "ally": 745, "set": 746, "ep": 747, "âĢĻs": 748, "bo": 749, "def": 750, "',Ċ": 751, "Ġme": 752, "Ġ!": 753, "atch": 754, "\">": 755, "\",Ċ": 756, "ec": 757, "ĠIn": 758, "ph": 759, "Ġ|": 760, "_f": 761, "Ġvar": 762, "ence": 763, "Id": 764, "ree": 765, "ink": 766, "lect": 767, "ug": 768, "eth": 769, "Ġelse": 770, "----------------": 771, "cont": 772, "Ġso": 773, "atic": 774, "Ġlo": 775, "pro": 776, "ton": 777, "ss": 778, "own": 779, "abel": 780, "oint": 781, "ous": 782, "eld": 783, "ST": 784, "The": 785, "ĠĠĠĠĠĠĠĠĠĠĠĠĠĠĠĠĠĠĠĠĠĠĠĠĠĠĠĠĠĠĠĠ": 786, "RE": 787, "\":": 788, "olor": 789, "tp": 790, "eg": 791, "key": 792, "ude": 793, "ĠSt": 794, "ound": 795, "Ġar": 796, "\");Ċ": 797, "ener": 798, "ser": 799, "bject": 800, "essage": 801, "fer": 802, "Ġmore": 803, "ations": 804, "ents": 805, "Ġhis": 806, "Ġthey": 807, ".S": 808, "ĠY": 809, "use": 810, "ne": 811, "ish": 812, "old": 813, "_d": 814, "io": 815, "ield": 816, "Ġper": 817, "Cont": 818, "ings": 819, "####": 820, "Ġdata": 821, "Ġsa": 822, "ef": 823, "fo": 824, "Ġone": 825, "eng": 826, "Ġdis": 827, "AT": 828, "Ġname": 829, "Ġtrue": 830, "val": 831, "led": 832, ".f": 833, "Ġne": 834, "Ġend": 835, ".T": 836, "cre": 837, "ark": 838, "log": 839, "Ex": 840, "error": 841, "_id": 842, "urre": 843, "ange": 844, "Ġnull": 845, "rray": 846, "Ġmy": 847, "pan": 848, "ict": 849, "ator": 850, "View": 851, "List": 852, "ĉreturn": 853, "âĢĿ": 854, "Ġpre": 855, "Ġx": 856, "clude": 857, "arg": 858, "ov": 859, ".h": 860, "Ġ>": 861, "Ġtheir": 862, "')": 863, "irst": 864, "ick": 865, "gh": 866, "LE": 867, "OR": 868, "Ġprivate": 869, "tem": 870, "čĊčĊ": 871, "user": 872, "Ġ)": 873, "com": 874, ".A": 875, "\";Ċ": 876, "Ġid": 877, "read": 878, "Ġwho": 879, "_b": 880, "\">Ċ": 881, "Ġtime": 882, "Ġman": 883, "ry": 884, "========": 885, "roup": 886, "rop": 887, "public": 888, "vel": 889, "umber": 890, "ble": 891, "Ġwhich": 892, "****************": 893, "Ġany": 894, "Ġfalse": 895, "we": 896, "Ġvalue": 897, "Ġli": 898, "\")": 899, "nder": 900, "gr": 901, "Ġno": 902, "param": 903, "fig": 904, ".com": 905, "Ġapp": 906, "_l": 907, "ions": 908, ".D": 909, "ĠCh": 910, "Ġabout": 911, "Ġadd": 912, "Ġsu": 913, "Ġstring": 914, "ID": 915, "Ġover": 916, "string": 917, ".l": 918, "ource": 919, "_C": 920, "]Ċ": 921, "Ġqu": 922, "ĠString": 923, "ca": 924, "SE": 925, "Ġro": 926, "sh": 927, "ual": 928, "Type": 929, "son": 930, "new": 931, "ern": 932, "Ġag": 933, "AR": 934, "];Ċ": 935, "].": 936, "Ġ?": 937, "ical": 938, "Ġdes": 939, "uth": 940, "ix": 941, "ays": 942, "Ġtype": 943, "'t": 944, "ault": 945, "Ġinter": 946, "var": 947, ".b": 948, "Ġpart": 949, ".d": 950, "urrent": 951, "IT": 952, "EN": 953, "enc": 954, "(f": 955, "ra": 956, "value": 957, "cho": 958, "utton": 959, "ose": 960, "Ġ!=": 961, "ater": 962, "Ã©": 963, "reate": 964, "oll": 965, "pos": 966, "yle": 967, "ng": 968, "AL": 969, "using": 970, "ames": 971, "Ġ{čĊ": 972, "ates": 973, "ely": 974, "Ġwork": 975, "Ġem": 976, "inal": 977, "Ġsp": 978, "Ġwhen": 979, ".set": 980, "ĠĠĠĠĠĠ": 981, "):Ċ": 982, "to": 983, "quire": 984, "indow": 985, "lement": 986, "pect": 987, "ash": 988, "[i": 989, "Ġuse": 990, ".F": 991, "pec": 992, "Ġad": 993, "ove": 994, "ception": 995, "ength": 996, "include": 997, "ader": 998, "ĠĠĠĠĠĠĠĠĠĠĠĠĠĠĠĠĠĠĠĠĠĠĠĠĠĠĠ": 999, "atus": 1000, "Th": 1001, "itle": 1002, "rit": 1003, "void": 1004, "().": 1005, "(Ċ": 1006, "Ġoff": 1007, "Ġother": 1008, "Ġ&&": 1009, "';Ċ": 1010, "ms": 1011, "Ġbeen": 1012, "Ġte": 1013, "ml": 1014, "co": 1015, "nc": 1016, "ervice": 1017, "Ġ%": 1018, "**Ċ": 1019, "ann": 1020, "ade": 1021, "ĊĊĊĊ": 1022, "lock": 1023, "const": 1024, "ponse": 1025, "Ġsup": 1026, "++": 1027, "date": 1028, "Ġacc": 1029, "Ġhad": 1030, "Ġbu": 1031, "ĠRe": 1032, "Ġwere": 1033, "Ġfile": 1034, "Ġwould": 1035, "ĠâĢľ": 1036, "ven": 1037, "iss": 1038, "Ġour": 1039, "class": 1040, "raw": 1041, "Ġyear": 1042, "Data": 1043, "Ġval": 1044, "Ġsome": 1045, "fter": 1046, "ys": 1047, "Ġ///": 1048, "round": 1049, "view": 1050, "Ġpe": 1051, "Ġthere": 1052, "Ġsaid": 1053, "du": 1054, "of": 1055, "line": 1056, "/*": 1057, "duct": 1058, "Ġher": 1059, "ĠĠĠĠĠĠĠĠĠĠĠĠĠ": 1060, "Res": 1061, "Ġco": 1062, "Ġcomm": 1063, "ise": 1064, "min": 1065, "ĠĠĠĠĊ": 1066, "#include": 1067, "ethod": 1068, ".P": 1069, "ute": 1070, "Ġass": 1071, "Int": 1072, "ask": 1073, "loc": 1074, "Ġlike": 1075, "ody": 1076, "Ġlet": 1077, "load": 1078, "Ġam": 1079, "rol": 1080, "Ġgr": 1081, "yp": 1082, "Ġalso": 1083, "ĠIt": 1084, "url": 1085, "ific": 1086, "ors": 1087, "_P": 1088, "_n": 1089, "igh": 1090, "Ġthan": 1091, "Com": 1092, "AN": 1093, "UL": 1094, "ating": 1095, "ĠThis": 1096, "ref": 1097, "_S": 1098, "Ġstatic": 1099, "roll": 1100, "Ġjust": 1101, "Ġresult": 1102, "ian": 1103, "idth": 1104, "Ġthem": 1105, "));Ċ": 1106, "der": 1107, "reak": 1108, "Con": 1109, "://": 1110, "ule": 1111, "...": 1112, "arch": 1113, "ement": 1114, "Ġ<<": 1115, "ush": 1116, "ense": 1117, "arr": 1118, "Ġinto": 1119, "cess": 1120, "amp": 1121, "ied": 1122, "ument": 1123, "Ġ\\": 1124, "],": 1125, "wo": 1126, "als": 1127, "Ġwhat": 1128, "anc": 1129, "Value": 1130, "='": 1131, "olum": 1132, "Ġpos": 1133, "ages": 1134, "ayer": 1135, "Ġsc": 1136, "ues": 1137, "\")Ċ": 1138, "_T": 1139, "Ġlist": 1140, "(s": 1141, "Ġcase": 1142, "Ch": 1143, "ĉĉĉĉĉ": 1144, "////////": 1145, "ponent": 1146, "Ġz": 1147, "Ġkn": 1148, "let": 1149, "DE": 1150, "red": 1151, "Ġfe": 1152, "Ġ},Ċ": 1153, "Ġ,": 1154, "(t": 1155, "Ġfirst": 1156, "');Ċ": 1157, "word": 1158, "Ġimport": 1159, "Ġact": 1160, "Ġchar": 1161, "CT": 1162, "ĠTr": 1163, "ople": 1164, "={": 1165, "ĉf": 1166, "ient": 1167, "cent": 1168, ".j": 1169, "lection": 1170, "))Ċ": 1171, "Ġonly": 1172, "Ġprint": 1173, "mer": 1174, ".W": 1175, "ock": 1176, "Ġ--": 1177, "Text": 1178, "Ġop": 1179, "ank": 1180, "Ġits": 1181, "Ġback": 1182, "[\"": 1183, "Ġneed": 1184, "Ġcl": 1185, "Ġsub": 1186, "Ġla": 1187, "((": 1188, ".\"": 1189, "Object": 1190, "Ġstart": 1191, "file": 1192, "(self": 1193, "ner": 1194, "ey": 1195, "Ġuser": 1196, "Ġent": 1197, "ĠCom": 1198, "its": 1199, "ĠCon": 1200, "ouble": 1201, "ower": 1202, "item": 1203, "very": 1204, "ĠWe": 1205, "lick": 1206, "ĠQ": 1207, "php": 1208, "ttp": 1209, "':": 1210, "ics": 1211, "Ġunder": 1212, "Ġ*Ċ": 1213, ".L": 1214, ");": 1215, "ices": 1216, "Ġreg": 1217, ")čĊ": 1218, "ĉpublic": 1219, "SS": 1220, "Ġthen": 1221, "reat": 1222, "ious": 1223, ".G": 1224, "ek": 1225, "irect": 1226, "heck": 1227, "cript": 1228, "ning": 1229, "ĠUn": 1230, "Ġmay": 1231, "ĠWh": 1232, "Bo": 1233, "Item": 1234, "struct": 1235, ".st": 1236, "ream": 1237, "ible": 1238, "loat": 1239, "Ġorg": 1240, "und": 1241, "sum": 1242, "_in": 1243, "../": 1244, "_M": 1245, "Ġhow": 1246, "rite": 1247, "'Ċ": 1248, "To": 1249, "ww": 1250, "Ġpeople": 1251, "index": 1252, ".n": 1253, "http": 1254, "(m": 1255, "ector": 1256, "Ġind": 1257, "Ġjav": 1258, "],Ċ": 1259, "ĠHe": 1260, "_st": 1261, "ful": 1262, "ole": 1263, "){Ċ": 1264, "Ġshould": 1265, "opy": 1266, "elp": 1267, "ier": 1268, "_name": 1269, "erson": 1270, "ION": 1271, "ote": 1272, "Ġtest": 1273, "Ġbet": 1274, "rror": 1275, "ular": 1276, "ãĢ": 1277, "ĠÐ": 1278, "bs": 1279, "ting": 1280, "Ġmake": 1281, "Tr": 1282, "Ġafter": 1283, "arget": 1284, "RO": 1285, "olumn": 1286, "rc": 1287, "_re": 1288, "define": 1289, "Ġright": 1290, "right": 1291, "day": 1292, "Ġlong": 1293, "[]": 1294, "(p": 1295, "td": 1296, "cond": 1297, "ĠPro": 1298, "Ġrem": 1299, "ptions": 1300, "vid": 1301, ".g": 1302, "Ġext": 1303, "Ġ__": 1304, "')Ċ": 1305, "pace": 1306, "mp": 1307, "Ġmin": 1308, "stance": 1309, "air": 1310, "action": 1311, "wh": 1312, "type": 1313, "util": 1314, "ait": 1315, "<?": 1316, "IC": 1317, "text": 1318, "Ġph": 1319, "Ġfl": 1320, ".M": 1321, "ccess": 1322, "br": 1323, "fore": 1324, "ersion": 1325, "),Ċ": 1326, ".re": 1327, "ateg": 1328, "Ġloc": 1329, "ins": 1330, "-s": 1331, "trib": 1332, "ĠInt": 1333, "Ġarray": 1334, ",\"": 1335, "Pro": 1336, "(c": 1337, "ession": 1338, ">ĊĊ": 1339, "Ġshe": 1340, "\"]": 1341, "aph": 1342, "Ġexp": 1343, "erty": 1344, "ĠSe": 1345, "Ġpar": 1346, "unc": 1347, "ET": 1348, "Ġread": 1349, "print": 1350, "Ġrel": 1351, "Ġform": 1352, "Ġdr": 1353, "Exception": 1354, "input": 1355, "Ġtrans": 1356, "########": 1357, "order": 1358, "By": 1359, "Ġaw": 1360, "ities": 1361, "uff": 1362, "play": 1363, ".add": 1364, "ĠâĢĵ": 1365, "Ġwant": 1366, "Ġcomp": 1367, "ments": 1368, "Ġ||": 1369, "az": 1370, "be": 1371, "Ġnumber": 1372, "Ġrequire": 1373, "ĠEx": 1374, "Ġcol": 1375, "Ġkey": 1376, "ember": 1377, "Ġtwo": 1378, "Ġsize": 1379, "Ġwhere": 1380, "UT": 1381, "result": 1382, "ĠĠĠĠĠĠĠĠĠĠĠĠĠĠĠĠĠĠĠĠĠĠĠĠĠĠĠĠĠĠĠ": 1383, "ough": 1384, "orld": 1385, "ood": 1386, "uch": 1387, "ative": 1388, "ger": 1389, "arent": 1390, "Ġ/*": 1391, "Ġarg": 1392, "Ġwhile": 1393, "(this": 1394, "Ġrec": 1395, "Ġdif": 1396, "State": 1397, "Ġspec": 1398, "ride": 1399, "_F": 1400, "Ġlook": 1401, "AM": 1402, "ility": 1403, "eter": 1404, "âĢĻt": 1405, "ĊĊĊ": 1406, "ayout": 1407, "--------------------------------": 1408, "ager": 1409, "Ġcould": 1410, "Ġbr": 1411, "ends": 1412, "ures": 1413, "Ġknow": 1414, "ets": 1415, "ĠIf": 1416, "ĠSh": 1417, ".w": 1418, "back": 1419, "Ġser": 1420, "Ġ+=": 1421, "Ġfr": 1422, "());Ċ": 1423, "Ġhand": 1424, "Ind": 1425, "ULL": 1426, "Im": 1427, "();ĊĊ": 1428, "Ġmost": 1429, "Ġtry": 1430, "Ġnow": 1431, "rough": 1432, ">čĊ": 1433, "ackage": 1434, "Ġhim": 1435, "._": 1436, "ify": 1437, "Ġbreak": 1438, "Ġ);Ċ": 1439, "ren": 1440, "#define": 1441, "itt": 1442, "Ġap": 1443, "ĉc": 1444, "(n": 1445, "ĠYou": 1446, ":ĊĊ": 1447, "-m": 1448, "Ġevery": 1449, "ustom": 1450, "lient": 1451, "ocument": 1452, "cription": 1453, "Error": 1454, "-b": 1455, "Ð¾": 1456, "][": 1457, "trans": 1458, "Ġpoint": 1459, "Ġstd": 1460, "Ġfil": 1461, "Time": 1462, "Ġmod": 1463, "Ġ->": 1464, "Ġerror": 1465, "ah": 1466, "Ġtext": 1467, "roller": 1468, "lose": 1469, "ql": 1470, "Ġpol": 1471, "></": 1472, "Ġshow": 1473, "User": 1474, "ased": 1475, "Ġ{ĊĊ": 1476, "Ġfind": 1477, "Ð°": 1478, "ED": 1479, "span": 1480, "enu": 1481, "Ġcurrent": 1482, "Ġused": 1483, "cept": 1484, "clud": 1485, "Ġplay": 1486, "Ġlog": 1487, "ution": 1488, "fl": 1489, "Ġsee": 1490, "indows": 1491, "Ġhelp": 1492, "Ġthese": 1493, "Ġpass": 1494, "Ġdown": 1495, "Ġeven": 1496, "ason": 1497, "uild": 1498, "from": 1499, "(d": 1500, "Ġbl": 1501, "label": 1502, "else": 1503, "Ðµ": 1504, "Ġ(!": 1505, "ized": 1506, "(),": 1507, "Ġob": 1508, "Ġitem": 1509, "ump": 1510, "UR": 1511, "orn": 1512, "Ġdon": 1513, "Se": 1514, "man": 1515, "ample": 1516, "tn": 1517, "================": 1518, "He": 1519, "gram": 1520, "Ġdid": 1521, "wn": 1522, "_h": 1523, "iver": 1524, "Ġsm": 1525, "Ġthrough": 1526, "ĠAn": 1527, "che": 1528, "Ġinv": 1529, "ouse": 1530, "Ġes": 1531, "ĠNew": 1532, "export": 1533, "mary": 1534, "uto": 1535, "ler": 1536, "Ġlast": 1537, "Ġevent": 1538, "try": 1539, "ï¼": 1540, "ily": 1541, "igned": 1542, "ines": 1543, "ollow": 1544, "icense": 1545, "sole": 1546, "lear": 1547, "(int": 1548, "Ġagain": 1549, "Ġhigh": 1550, "html": 1551, "Index": 1552, "uthor": 1553, "Ġ/**Ċ": 1554, "Ġline": 1555, "Event": 1556, "_D": 1557, "Ġdoes": 1558, "itial": 1559, "Ġcr": 1560, "ars": 1561, "Ġtem": 1562, "cause": 1563, "face": 1564, "Ġ`": 1565, "_A": 1566, "Button": 1567, "ature": 1568, "ected": 1569, "ES": 1570, "ister": 1571, "ĉĊ": 1572, "Ġbefore": 1573, "ale": 1574, "other": 1575, "Ġbecause": 1576, "roid": 1577, "Ġed": 1578, "ik": 1579, "reg": 1580, "ĠDe": 1581, "Ġdist": 1582, "},Ċ": 1583, "Ġstate": 1584, "Ġcons": 1585, "rint": 1586, "att": 1587, "Ġhere": 1588, "ined": 1589, "Ġfinal": 1590, "Ġ\"\"": 1591, "Key": 1592, "LO": 1593, "Ġdel": 1594, "pty": 1595, "thing": 1596, "ĠAnd": 1597, "Ġrun": 1598, "ĠX": 1599, "ym": 1600, ".app": 1601, "Ġvery": 1602, "ces": 1603, "_N": 1604, "ared": 1605, "ward": 1606, "list": 1607, "ited": 1608, "olog": 1609, "itch": 1610, "Box": 1611, "ife": 1612, "Ġac": 1613, "Ġmodel": 1614, "Ġmon": 1615, "Ġway": 1616, "lete": 1617, "Ġcall": 1618, "Ġatt": 1619, "Ġcal": 1620, "vert": 1621, "Ġdec": 1622, "lease": 1623, "oun": 1624, "Ġ});Ċ": 1625, "fr": 1626, "formation": 1627, "etail": 1628, "Ġnum": 1629, "aj": 1630, "query": 1631, "Ġwell": 1632, "Ġobject": 1633, "ĠAs": 1634, "Ġyears": 1635, "Color": 1636, "IS": 1637, "Ġdefault": 1638, "Wh": 1639, "Ġins": 1640, "aint": 1641, "Ġjava": 1642, "Ġsim": 1643, "ĠAr": 1644, "mon": 1645, "til": 1646, "();čĊ": 1647, "):": 1648, "Set": 1649, "atter": 1650, "Ġview": 1651, "Ġpres": 1652, "array": 1653, "We": 1654, "At": 1655, "Ġbel": 1656, "Ġmany": 1657, "Man": 1658, "ender": 1659, "Ġbeing": 1660, "Ġgood": 1661, "ĉĉĉĉĉĉ": 1662, "ational": 1663, "ware": 1664, ".log": 1665, "{čĊ": 1666, "Ġusing": 1667, "_B": 1668, "Ġ:=": 1669, "_w": 1670, "ists": 1671, "lish": 1672, "Ġstud": 1673, "ĠAl": 1674, "Ġgu": 1675, "config": 1676, "uring": 1677, "time": 1678, "oken": 1679, "amespace": 1680, "Ġrequest": 1681, "Ġchild": 1682, "ĠÃ": 1683, "lob": 1684, "Ġparam": 1685, "Ġ}čĊ": 1686, "Ġecho": 1687, "function": 1688, "********************************": 1689, "ps": 1690, "Element": 1691, "alk": 1692, "lication": 1693, "by": 1694, "Size": 1695, "rawing": 1696, "Ġperson": 1697, "ĠĠĠĠĠĠĠĠĠĠĠĠĠĠĠĠĠ": 1698, "\\n": 1699, "object": 1700, "ince": 1701, "En": 1702, "File": 1703, "uf": 1704, "ffect": 1705, "AC": 1706, "Ġstyle": 1707, "summary": 1708, "Ġque": 1709, "_r": 1710, "Ġ($": 1711, "Model": 1712, "ident": 1713, "Ġmethod": 1714, "IL": 1715, "ott": 1716, "less": 1717, "ING": 1718, "Ġ()": 1719, "Ġexpect": 1720, "ync": 1721, "package": 1722, "urs": 1723, "Ġprot": 1724, "./": 1725, "pre": 1726, "Ġ)Ċ": 1727, "ma": 1728, "Ġsur": 1729, "Ġfound": 1730, "Info": 1731, "par": 1732, "imes": 1733, ".e": 1734, "ains": 1735, "Ġpost": 1736, "-d": 1737, "olean": 1738, "Ġsl": 1739, "PE": 1740, "Ġsuch": 1741, "select": 1742, "ainer": 1743, "Ġthink": 1744, "Ġdiffer": 1745, ".r": 1746, "/**Ċ": 1747, "FF": 1748, "ool": 1749, "plate": 1750, "qual": 1751, "ĠFor": 1752, "Ġmuch": 1753, "uc": 1754, "(new": 1755, "odule": 1756, "Ġsom": 1757, "Ġhttp": 1758, "ĠList": 1759, "Ġcount": 1760, "Ġinst": 1761, "char": 1762, "mit": 1763, ".id": 1764, "aking": 1765, "Ġgener": 1766, "px": 1767, "vice": 1768, "_data": 1769, "ĠNULL": 1770, "}čĊ": 1771, "idd": 1772, "ãĢĤ": 1773, "Ġmed": 1774, "org": 1775, "ider": 1776, "ache": 1777, "work": 1778, "Ġcheck": 1779, "ween": 1780, "Ġ((": 1781, "the": 1782, "ants": 1783, "><": 1784, ".B": 1785, "-c": 1786, "Ġopen": 1787, "Ġest": 1788, "ĠĠĠĠĠĠĠĠĊ": 1789, "Ġnext": 1790, "IM": 1791, "ÑĤ": 1792, "OT": 1793, "Ã³": 1794, "Ġfollow": 1795, "content": 1796, "ĠĠĠĠĠĠĠĠĠĠĠĠ": 1797, "Ġinclud": 1798, "HE": 1799, "ĠRes": 1800, "Ġhref": 1801, "Ð¸": 1802, "Ġcar": 1803, "ypes": 1804, "image": 1805, "Un": 1806, "Ġbool": 1807, "AD": 1808, "Ġgame": 1809, ".Form": 1810, "rows": 1811, "*/": 1812, "velop": 1813, ".Drawing": 1814, "Ġpath": 1815, "ision": 1816, "Ġeach": 1817, "ĠPl": 1818, "_type": 1819, "Path": 1820, "nection": 1821, "Ġav": 1822, "').": 1823, "Ġsupport": 1824, "ENT": 1825, "rem": 1826, "\").": 1827, "Ġown": 1828, "Ġcor": 1829, "count": 1830, "miss": 1831, "ually": 1832, "Ġmem": 1833, "std": 1834, "ience": 1835, "search": 1836, "\"ĊĊ": 1837, "Form": 1838, "Ġsex": 1839, "ename": 1840, "Ġsign": 1841, "Ġet": 1842, "ĠĠĠĠĠĠĠĠĠĠ": 1843, "','": 1844, "ĠApp": 1845, "Ġthose": 1846, "off": 1847, "Ġerr": 1848, "Ġsystem": 1849, "Ġbest": 1850, "code": 1851, "Ġsame": 1852, "Ġdi": 1853, "uss": 1854, "Ġcreate": 1855, "ather": 1856, "Array": 1857, ".in": 1858, "fe": 1859, "Service": 1860, "UN": 1861, "ats": 1862, "ĠZ": 1863, "alth": 1864, "Ġmade": 1865, "true": 1866, "AB": 1867, "Ġmark": 1868, "rid": 1869, "ified": 1870, ",čĊ": 1871, "yn": 1872, "press": 1873, "Ġgroup": 1874, "Ġfin": 1875, "ĠLicense": 1876, "Field": 1877, "eger": 1878, "Ġworld": 1879, "iness": 1880, "ty": 1881, "Ġprocess": 1882, "(b": 1883, "Ġcre": 1884, "arn": 1885, "ives": 1886, "Ġmain": 1887, "ideo": 1888, "_g": 1889, "AG": 1890, "valid": 1891, "img": 1892, "PI": 1893, "Ġcolor": 1894, "Ġreport": 1895, "Ġtake": 1896, "rib": 1897, "OM": 1898, "Ġday": 1899, "Request": 1900, "Ġsk": 1901, "bers": 1902, "ĉs": 1903, ".Add": 1904, "oot": 1905, "Image": 1906, "Ġcomple": 1907, "ollection": 1908, "Ġtop": 1909, "Ġfree": 1910, "AS": 1911, "De": 1912, "ĠOn": 1913, "IG": 1914, "eta": 1915, "Date": 1916, "Ġaction": 1917, "Over": 1918, "itor": 1919, "ĠĠĠĠĠĠĠĠĠĠĠĠĠĠĠĠĠĠĠĠĠĠĠĠĠĠĠĠĠĠĠĠĠĠĠ": 1920, "not": 1921, "Ġindex": 1922, "her": 1923, "icon": 1924, "On": 1925, ";čĊčĊ": 1926, "ivity": 1927, "mand": 1928, ".Windows": 1929, "OL": 1930, "Ġreal": 1931, "Ġmax": 1932, "land": 1933, "....": 1934, "raph": 1935, "Ġbuild": 1936, "leg": 1937, "assword": 1938, "?ĊĊ": 1939, "âĢ¦": 1940, "ook": 1941, "uck": 1942, "Ġmessage": 1943, "test": 1944, "ivers": 1945, "Ġinput": 1946, "Ġart": 1947, "Ġbetween": 1948, "Get": 1949, "enter": 1950, "ground": 1951, "ene": 1952, "Ã¡": 1953, ".length": 1954, "Node": 1955, "(i": 1956, "Class": 1957, "for": 1958, "ĠâĢĶ": 1959, "ten": 1960, "oin": 1961, "Ġke": 1962, "ui": 1963, "ĠIN": 1964, "Ġtable": 1965, "sub": 1966, "ĠLe": 1967, "Ġhead": 1968, "Ġmust": 1969, "////////////////": 1970, ".util": 1971, "Context": 1972, "Ġorder": 1973, "Ġmov": 1974, "over": 1975, "Ġcontin": 1976, "Ġsay": 1977, "static": 1978, ".Text": 1979, "ĠclassName": 1980, "pany": 1981, "Ġter": 1982, "head": 1983, "rg": 1984, "Ġproduct": 1985, "This": 1986, ".âĢĿ": 1987, "ĠBut": 1988, "loy": 1989, "Ġdouble": 1990, "sg": 1991, "Ġplace": 1992, ".x": 1993, "message": 1994, "Ġinformation": 1995, "private": 1996, "Ġoper": 1997, "ced": 1998, "db": 1999, "\"></": 2000, "Param": 2001, "icle": 2002, "Ġweek": 2003, "Ġprop": 2004, "table": 2005, "idget": 2006, "place": 2007, "Prop": 2008, "ĠAll": 2009, "els": 2010, "box": 2011, ".ĊĊĊĊ": 2012, ".R": 2013, "ĠTo": 2014, "iter": 2015, "Sh": 2016, "uration": 2017, "older": 2018, "_list": 2019, "come": 2020, "Ġsw": 2021, "ization": 2022, "ĉfor": 2023, "bl": 2024, "Ġprogram": 2025, "(e": 2026, "ape": 2027, "check": 2028, ".Forms": 2029, "Ġund": 2030, "ategory": 2031, "ags": 2032, "Ġresponse": 2033, "US": 2034, "request": 2035, "Ġstruct": 2036, "escription": 2037, "Ġcode": 2038, "_H": 2039, "uffer": 2040, "Ġwithout": 2041, "lobal": 2042, "Manager": 2043, "ilter": 2044, "PO": 2045, "ĉthis": 2046, "option": 2047, "Ġsol": 2048, "Ġ===": 2049, "akes": 2050, "Controller": 2051, "Message": 2052, "Ġref": 2053, "ever": 2054, "ĠSo": 2055, "aining": 2056, ".append": 2057, "Ġstill": 2058, "Ġprovid": 2059, "Ġassert": 2060, "med": 2061, "Ġcap": 2062, "usiness": 2063, "Ġrep": 2064, "tings": 2065, "ved": 2066, ".N": 2067, "api": 2068, "OD": 2069, "Ġfield": 2070, "iven": 2071, "oto": 2072, "âĢľ": 2073, "col": 2074, "(x": 2075, "ght": 2076, "Result": 2077, "Code": 2078, ".is": 2079, "link": 2080, "Ġcour": 2081, "An": 2082, "Ġteam": 2083, "ĉint": 2084, "ift": 2085, "Ġsecond": 2086, "Ġgoing": 2087, "Ġrange": 2088, "_E": 2089, "ness": 2090, "Ġfam": 2091, "Ġnil": 2092, "ĠCont": 2093, "ailable": 2094, "utes": 2095, "atab": 2096, "Ġfact": 2097, "Ġvis": 2098, "(&": 2099, "ĠAN": 2100, "Al": 2101, "title": 2102, "Ġandroid": 2103, "CE": 2104, "\\\"": 2105, "irt": 2106, "Ġwrit": 2107, "Ð½": 2108, "ĉm": 2109, "ftware": 2110, "ond": 2111, "Ġret": 2112, "osition": 2113, "Ġhome": 2114, "Ġleft": 2115, "args": 2116, "meric": 2117, "Ġdirect": 2118, "oci": 2119, "Pl": 2120, "As": 2121, "ret": 2122, "ado": 2123, "Of": 2124, "chn": 2125, "ĠGet": 2126, "ee": 2127, "ross": 2128, "();": 2129, "____": 2130, ".ph": 2131, "It": 2132, "oute": 2133, "Ġexper": 2134, "chool": 2135, "www": 2136, "},": 2137, "Ġallow": 2138, "ĠÂ": 2139, "())": 2140, "size": 2141, "ism": 2142, "ai": 2143, "tract": 2144, "ane": 2145, "...ĊĊ": 2146, "context": 2147, "Ġbeg": 2148, "CH": 2149, "Ġpage": 2150, "hip": 2151, "no": 2152, "core": 2153, "sp": 2154, "Ġdifferent": 2155, "iable": 2156, "ĠMe": 2157, "_IN": 2158, "button": 2159, "ĠIs": 2160, "ervices": 2161, "Ġca": 2162, "Ġaround": 2163, "App": 2164, "ration": 2165, "Ġrece": 2166, "Ġreally": 2167, "Ġimage": 2168, "Ġtarget": 2169, "Ġdep": 2170, "opyright": 2171, "tra": 2172, "ingle": 2173, "ital": 2174, "Layout": 2175, "Ġboth": 2176, "Override": 2177, "arm": 2178, "=>": 2179, "aterial": 2180, "iled": 2181, "Ġput": 2182, "Qu": 2183, "ÑĢ": 2184, "ung": 2185, "map": 2186, "ĉĉĉĉĉĉĉĉ": 2187, "Ġlevel": 2188, "Component": 2189, "book": 2190, "creen": 2191, "_RE": 2192, "Ġconfig": 2193, "ãģ": 2194, "Or": 2195, ".data": 2196, "Ġdocument": 2197, "\",\"": 2198, "tribute": 2199, "ux": 2200, "Log": 2201, "ference": 2202, "post": 2203, "_e": 2204, "Ġlocal": 2205, "andom": 2206, "assert": 2207, "Val": 2208, "lected": 2209, "ina": 2210, "atabase": 2211, "Add": 2212, "Ġcontent": 2213, ".print": 2214, "signed": 2215, "ric": 2216, ".\"ĊĊ": 2217, "Ġfa": 2218, "!ĊĊ": 2219, "-f": 2220, "ived": 2221, "Ġquest": 2222, ".ex": 2223, "Ġfloat": 2224, "Ġdevelop": 2225, "Ð¾Ð": 2226, "Map": 2227, "ading": 2228, "Ġposs": 2229, "UE": 2230, "namespace": 2231, "_O": 2232, "ĉb": 2233, ".Get": 2234, ">(": 2235, "json": 2236, "etails": 2237, "Ġtoo": 2238, "Ġextends": 2239, "ĠNone": 2240, "Ġfore": 2241, "(String": 2242, "format": 2243, "Ġgreat": 2244, "inter": 2245, "cale": 2246, "Ñģ": 2247, "ron": 2248, "iving": 2249, "Ent": 2250, "ency": 2251, "xt": 2252, "oy": 2253, "Ġmonth": 2254, "Ġhapp": 2255, "Ġsuper": 2256, "bar": 2257, "default": 2258, "_de": 2259, "ords": 2260, "ln": 2261, "({Ċ": 2262, "ĠInd": 2263, "ases": 2264, "Ġtitle": 2265, "Ġcontext": 2266, "oh": 2267, "-p": 2268, "Em": 2269, "Ġmet": 2270, "Test": 2271, "Ġlife": 2272, "_v": 2273, "ĠUS": 2274, "UI": 2275, "ocation": 2276, "md": 2277, "Ġ[Ċ": 2278, "Ġ]": 2279, "sw": 2280, "Ġincre": 2281, "script": 2282, "ential": 2283, "ways": 2284, ".de": 2285, "Ġsrc": 2286, "Ġcatch": 2287, "ĠAmeric": 2288, "//Ċ": 2289, "ĠĠĠĠĠĠĠĠĠĠĠĠĠĠ": 2290, "Ġpay": 2291, "plit": 2292, "âĢĶ": 2293, "Ġcoun": 2294, "obj": 2295, ".php": 2296, "Ġchange": 2297, "ething": 2298, "'re": 2299, "aster": 2300, "los": 2301, "lation": 2302, "ĠĠĊ": 2303, "Le": 2304, "Ã¤": 2305, "({": 2306, "ready": 2307, "ĠNo": 2308, "Ġposition": 2309, "Ġold": 2310, "Ġbook": 2311, "abled": 2312, "bug": 2313, "Hand": 2314, "};ĊĊ": 2315, "isplay": 2316, "aving": 2317, "Ġgover": 2318, "Ġversion": 2319, "System": 2320, "nect": 2321, "response": 2322, "Style": 2323, "Up": 2324, "angu": 2325, "Ġthree": 2326, "init": 2327, "ero": 2328, "Ġlaw": 2329, "endif": 2330, "Ġbase": 2331, "email": 2332, "(l": 2333, "_V": 2334, "Ġconf": 2335, "ATE": 2336, "Ġduring": 2337, "tes": 2338, "Ġconsole": 2339, "ĠPr": 2340, "Ġspe": 2341, "ves": 2342, "path": 2343, "ialog": 2344, "dition": 2345, "_to": 2346, "ards": 2347, "Ġagainst": 2348, "etwork": 2349, "ĠPh": 2350, "_L": 2351, "cur": 2352, "imit": 2353, "With": 2354, "Ġpower": 2355, "ium": 2356, "';ĊĊ": 2357, "Ġwom": 2358, "left": 2359, "ources": 2360, "atri": 2361, "ĠIm": 2362, "ĠMan": 2363, "orth": 2364, "${": 2365, "quals": 2366, "ese": 2367, "_size": 2368, "Ġiss": 2369, "otal": 2370, "-g": 2371, "ique": 2372, "rame": 2373, "Ġwidth": 2374, "erg": 2375, ")(": 2376, "ittle": 2377, "TR": 2378, "ĠThey": 2379, "ences": 2380, "rl": 2381, "ons": 2382, "Ġlabel": 2383, ".y": 2384, "-t": 2385, "update": 2386, "anel": 2387, "sc": 2388, ".to": 2389, "Ġproject": 2390, "Ã¼": 2391, "Ġelement": 2392, "Ġsuccess": 2393, "ĉĉĊ": 2394, ".sh": 2395, "ram": 2396, "ched": 2397, "())Ċ": 2398, "Ġ(Ċ": 2399, "Ġdate": 2400, "Ġtot": 2401, "_ST": 2402, "All": 2403, "ification": 2404, "ĉvar": 2405, "Ġtri": 2406, "chem": 2407, "my": 2408, "Ġbig": 2409, "ĠAd": 2410, "ĠAt": 2411, "ots": 2412, "num": 2413, "Act": 2414, "Ġmap": 2415, "era": 2416, "cope": 2417, ".$": 2418, ",âĢĿ": 2419, "Ġpop": 2420, "Ġfew": 2421, "Ġlen": 2422, "uid": 2423, "eters": 2424, "ules": 2425, "ÃŃ": 2426, "source": 2427, "https": 2428, "Ġdem": 2429, "Ġear": 2430, "################": 2431, "Ġmatch": 2432, "ories": 2433, "aces": 2434, "ĠCl": 2435, "Ġnode": 2436, "irc": 2437, "local": 2438, "unity": 2439, "};Ċ": 2440, "Ġanother": 2441, "<<": 2442, "ogle": 2443, "Ġsit": 2444, "ework": 2445, "TE": 2446, ".I": 2447, "NS": 2448, "ology": 2449, "ought": 2450, ".Cont": 2451, ">>": 2452, "Ġcare": 2453, "state": 2454, "ĉprivate": 2455, "Ġeffect": 2456, "++)": 2457, "_file": 2458, "ending": 2459, "Line": 2460, "For": 2461, "ior": 2462, "ĠSc": 2463, "Ġfun": 2464, ".Size": 2465, "ĉelse": 2466, "])": 2467, "start": 2468, "vious": 2469, "Ġ},": 2470, "ours": 2471, "Ġleg": 2472, "Ġservice": 2473, "Ġsince": 2474, "iron": 2475, "Label": 2476, "Ġnon": 2477, "Ġlos": 2478, "iction": 2479, "Ġfull": 2480, "acter": 2481, "board": 2482, "gress": 2483, "Ġturn": 2484, "ither": 2485, ".size": 2486, "Ġbody": 2487, "resh": 2488, "eturn": 2489, "(_": 2490, "yles": 2491, "ormal": 2492, "pi": 2493, "Ġsomething": 2494, "!--": 2495, "uint": 2496, "Ġprodu": 2497, "Ġstand": 2498, "Ġproble": 2499, "Ġavailable": 2500, "mt": 2501, "ĠBl": 2502, "Ġ...": 2503, "Ġblock": 2504, "Input": 2505, "Ġkeep": 2506, "Count": 2507, "open": 2508, "Ġ['": 2509, "Ġthrow": 2510, "uilder": 2511, "Action": 2512, "Ġthings": 2513, "True": 2514, "Ġurl": 2515, "ĠBo": 2516, "printf": 2517, "Ġred": 2518, "js": 2519, ".create": 2520, "ĠOr": 2521, "Status": 2522, "Instance": 2523, "Ġcontrol": 2524, "Ġcome": 2525, "Ġcustom": 2526, "location": 2527, "model": 2528, "ĠčĊ": 2529, "Ġsource": 2530, "Ġeas": 2531, ".out": 2532, "]ĊĊ": 2533, "oney": 2534, "Ġawait": 2535, "Ġpartic": 2536, "AP": 2537, "ublish": 2538, "odes": 2539, "_pro": 2540, "ply": 2541, "riter": 2542, "Ġprov": 2543, "Ġmill": 2544, "HT": 2545, "])Ċ": 2546, "Ġchang": 2547, "Ġask": 2548, "ĠĠĠĠĠĠĠĠĠĠĠĠĠĠĠĠĠĠĠĠĠ": 2549, "Ġoutput": 2550, "Ġemail": 2551, ".push": 2552, "Ġ}čĊčĊ": 2553, "ination": 2554, "atrix": 2555, "Table": 2556, "uccess": 2557, "]);Ċ": 2558, "ĠĠĠĠĠĠĠĠĠĠĠĠĠĠĠĠĠĠĠĠĠĠĠĠĠĠĠĠĠĠĠĠĠĠĠĠĠĠĠ": 2559, "Ġdisc": 2560, "([": 2561, "Ġbusiness": 2562, "height": 2563, ".html": 2564, "ta": 2565, "field": 2566, "Ġrequired": 2567, "_R": 2568, "Ġgovern": 2569, "}čĊčĊ": 2570, "lex": 2571, ".,": 2572, "ĠSet": 2573, "urch": 2574, "///": 2575, "ts": 2576, "af": 2577, "Ġmight": 2578, "istory": 2579, "Str": 2580, "Ġnever": 2581, "Response": 2582, "arse": 2583, "ada": 2584, "ĠHow": 2585, "Ġ*)": 2586, "Ġ;": 2587, "Ġhard": 2588, "Ad": 2589, "Ġintern": 2590, "used": 2591, "(data": 2592, "mod": 2593, "annel": 2594, "Ġnp": 2595, "ugg": 2596, "Ġ/>Ċ": 2597, "Ġcalled": 2598, "body": 2599, "Ġcho": 2600, "(r": 2601, "_set": 2602, "ird": 2603, "Ġ>=": 2604, "Ġ};Ċ": 2605, "Ġoptions": 2606, "ĠGener": 2607, "Ġheight": 2608, "Point": 2609, "You": 2610, "ety": 2611, "Click": 2612, "Ġsmall": 2613, "Ġide": 2614, "Ġaccess": 2615, "anguage": 2616, "Ġprotected": 2617, "Ġjob": 2618, "ĠThere": 2619, "Def": 2620, "Ġaddress": 2621, "Ġuint": 2622, "Not": 2623, "oo": 2624, "aps": 2625, "<div": 2626, "ained": 2627, "atur": 2628, "Ġsum": 2629, "-w": 2630, "ĠDate": 2631, "Ġlittle": 2632, "Ġfri": 2633, "YPE": 2634, "Ġport": 2635, "eh": 2636, "pring": 2637, "_path": 2638, "Ġstatus": 2639, "aim": 2640, "bool": 2641, "Ġappe": 2642, "Ġos": 2643, ".name": 2644, "ension": 2645, "_G": 2646, "Ġupdate": 2647, "Config": 2648, "aff": 2649, "ERR": 2650, "Ġ<=": 2651, "ately": 2652, "#if": 2653, "uction": 2654, "ĠTe": 2655, "Ġlink": 2656, "ĠUser": 2657, ".find": 2658, ".org": 2659, "me": 2660, "Ġgiven": 2661, "Out": 2662, "#endif": 2663, "Ġbetter": 2664, "Page": 2665, "Ġfeel": 2666, "enn": 2667, "ML": 2668, "Ġalready": 2669, "Ġincluding": 2670, "oogle": 2671, "ru": 2672, "ically": 2673, "prop": 2674, "lean": 2675, "outer": 2676, "Ġalways": 2677, "ording": 2678, "If": 2679, "orage": 2680, "Ġparent": 2681, "vis": 2682, "ĉĉĉĉĉĉĉ": 2683, "Ġgot": 2684, "stand": 2685, "Ġless": 2686, "/s": 2687, "ĠAss": 2688, "apt": 2689, "ired": 2690, "ĠAdd": 2691, "Ġaccount": 2692, "ploy": 2693, "Ġder": 2694, "resent": 2695, "Ġlot": 2696, "Ġvalid": 2697, "ĉd": 2698, "Ġbit": 2699, "ponents": 2700, "Ġfollowing": 2701, "_ex": 2702, "SON": 2703, "Ġsure": 2704, "ocial": 2705, "Ġprom": 2706, "erties": 2707, "header": 2708, ".pro": 2709, "Ġboolean": 2710, "Ġsearch": 2711, "ken": 2712, "Ġorig": 2713, "Ġer": 2714, "Ed": 2715, "EM": 2716, "aut": 2717, "ling": 2718, "ality": 2719, "ById": 2720, "bed": 2721, "ĉcase": 2722, "ether": 2723, "posit": 2724, "Ġinvest": 2725, "ĠOR": 2726, "Ġsays": 2727, "mission": 2728, "AME": 2729, "Ġtemp": 2730, "oad": 2731, "Ġrest": 2732, "info": 2733, "Ġinterest": 2734, "Arg": 2735, "Ġperform": 2736, "pons": 2737, "ĠView": 2738, "Ġver": 2739, "lib": 2740, "(const": 2741, "Util": 2742, "Listener": 2743, "arge": 2744, "Ġmult": 2745, "Ġdie": 2746, "Ġsite": 2747, "../../": 2748, "EL": 2749, "Ġvalues": 2750, "Ġ})Ċ": 2751, "pen": 2752, "No": 2753, "icro": 2754, "Ġbeh": 2755, "Ġ'./": 2756, "acy": 2757, "rec": 2758, "()->": 2759, "ĉĠĠĠ": 2760, "\"))": 2761, "Content": 2762, "_W": 2763, "plement": 2764, "Ġwon": 2765, "Ġvideo": 2766, "adi": 2767, "point": 2768, "%%": 2769, "Ġgl": 2770, "erved": 2771, "viron": 2772, "IF": 2773, "uted": 2774, "ãĥ": 2775, "'m": 2776, "Ġcert": 2777, "Ġprof": 2778, "Ġcell": 2779, "ari": 2780, "Ġplayer": 2781, "ais": 2782, "Ġcost": 2783, "Ġhum": 2784, "(R": 2785, "Ġoffic": 2786, "ks": 2787, ".text": 2788, "atures": 2789, "Ġtotal": 2790, "Ġ*/ĊĊ": 2791, "ope": 2792, "Ġstat": 2793, "UM": 2794, "Ġload": 2795, "ights": 2796, "Ġclear": 2797, "uro": 2798, "Ġtechn": 2799, "upport": 2800, "IR": 2801, "Ġrow": 2802, "Ġseem": 2803, "Ġq": 2804, "Ġshort": 2805, "ĠNot": 2806, "ipp": 2807, "Group": 2808, "section": 2809, "max": 2810, "irl": 2811, "Ġoverride": 2812, "Ġcompany": 2813, "Ġdone": 2814, "\");čĊ": 2815, "Ġgre": 2816, ".Re": 2817, "Ġbelie": 2818, "rist": 2819, "Ġhealth": 2820, "ANT": 2821, "()ĊĊ": 2822, "ĠBe": 2823, ".value": 2824, "ĠGr": 2825, "ottom": 2826, "Ġargs": 2827, "PT": 2828, "status": 2829, "func": 2830, "uments": 2831, "-h": 2832, "Number": 2833, ":čĊ": 2834, "ĠLog": 2835, "erver": 2836, "Ġ),Ċ": 2837, "ament": 2838, "Ġobj": 2839, "inc": 2840, "Ġchildren": 2841, "icy": 2842, "IZ": 2843, "ands": 2844, "ably": 2845, "Ġdistrib": 2846, "Ġcur": 2847, "erial": 2848, "Ġdays": 2849, "reated": 2850, "rect": 2851, "-l": 2852, "irm": 2853, "idden": 2854, "omb": 2855, "Ġinitial": 2856, ".js": 2857, "Ġâ": 2858, "Query": 2859, "Ġonline": 2860, "imal": 2861, ".con": 2862, "au": 2863, "Url": 2864, "control": 2865, "irection": 2866, "Ġinstance": 2867, "ORT": 2868, "ĠFr": 2869, "where": 2870, "Ġjavax": 2871, "Ġorgan": 2872, "apter": 2873, "Ġreason": 2874, "options": 2875, "ĠMar": 2876, "(a": 2877, "Ġwithin": 2878, ".âĢĿĊĊ": 2879, "ODE": 2880, "_DE": 2881, "admin": 2882, "ended": 2883, "Ġdesign": 2884, "ĠData": 2885, "une": 2886, "ĠFile": 2887, "root": 2888, "Ġcent": 2889, "Ġarr": 2890, "_add": 2891, "len": 2892, "page": 2893, ",'": 2894, "_str": 2895, "Ġbro": 2896, "ability": 2897, "outh": 2898, "/c": 2899, "pose": 2900, "irtual": 2901, "earch": 2902, "_url": 2903, "argin": 2904, "Http": 2905, "Ġschool": 2906, "ava": 2907, "Ġconsider": 2908, ".label": 2909, "ĠArray": 2910, "web": 2911, "opt": 2912, ".println": 2913, "ulation": 2914, "Ġfunc": 2915, "PL": 2916, "Ġ\"\\": 2917, "ĠText": 2918, "actory": 2919, "(function": 2920, "null": 2921, "Ġeng": 2922, "down": 2923, "Ġinclude": 2924, "ĠEn": 2925, "ĠDr": 2926, "Ġdb": 2927, "!!": 2928, "side": 2929, "Ġinit": 2930, "quired": 2931, "ĠShe": 2932, "Column": 2933, "react": 2934, "Ġann": 2935, "Ġstop": 2936, "Ġlater": 2937, "ĠThat": 2938, "ention": 2939, "df": 2940, "UG": 2941, "ILE": 2942, "Ġclient": 2943, "raft": 2944, "ffer": 2945, "POST": 2946, "elper": 2947, "Ġlove": 2948, "quote": 2949, "oud": 2950, "Ġjson": 2951, "Ġable": 2952, "Ġmen": 2953, "AX": 2954, "ĠCopyright": 2955, "Ã¶": 2956, "avig": 2957, "req": 2958, "Client": 2959, "});Ċ": 2960, ".Com": 2961, "erc": 2962, "ilt": 2963, "pecial": 2964, "_com": 2965, "room": 2966, ".Name": 2967, "Ġgive": 2968, "amb": 2969, "ike": 2970, "Ġcondition": 2971, "client": 2972, "ators": 2973, ":\"": 2974, "Ġcopy": 2975, "uture": 2976, "iversity": 2977, "ernal": 2978, "{{": 2979, "ĠCan": 2980, "ounc": 2981, "do": 2982, "Ġocc": 2983, "Ġappro": 2984, "thers": 2985, "ze": 2986, "Ġeither": 2987, "ĠFl": 2988, "Ġimportant": 2989, "Ġlead": 2990, "attr": 2991, "ART": 2992, "Equal": 2993, "Ġda": 2994, "etch": 2995, "entity": 2996, "Ġfamily": 2997, "adding": 2998, "Ġoption": 2999, "Ġexist": 3000, "ica": 3001, "ĠObject": 3002, "'ve": 3003, "vers": 3004, "itional": 3005, "output": 3006, "ĠTrue": 3007, "ĠOF": 3008, "_time": 3009, "Ġoffer": 3010, "Ġ});ĊĊ": 3011, "HER": 3012, "egin": 3013, "\"\"": 3014, "Ġwater": 3015, "Ġche": 3016, "ĠMy": 3017, "ored": 3018, "Ġstep": 3019, "ances": 3020, "CK": 3021, "AY": 3022, "à¸": 3023, "struction": 3024, "(C": 3025, "ouch": 3026, "Stream": 3027, "active": 3028, "ama": 3029, "Entity": 3030, "product": 3031, "(){Ċ": 3032, "Ġgovernment": 3033, "ĠID": 3034, "ajor": 3035, "And": 3036, "Ġdisplay": 3037, "Ð»": 3038, "Ġtimes": 3039, "Ġfour": 3040, "Ġfar": 3041, "Ġpresent": 3042, "ĠNS": 3043, "Ġ\\Ċ": 3044, "uest": 3045, "Ġbas": 3046, "echo": 3047, "child": 3048, "ifier": 3049, "Handler": 3050, "Ġlib": 3051, "Property": 3052, "translation": 3053, "Ġroom": 3054, "Ġonce": 3055, "Ġ[]": 3056, "center": 3057, "================================": 3058, "Ġresults": 3059, "Ġcontinue": 3060, "Ġtalk": 3061, "_get": 3062, "Ġgrow": 3063, ".sw": 3064, "eb": 3065, "ĠPublic": 3066, "OP": 3067, "ecute": 3068, "ols": 3069, "Ġ**": 3070, "\");ĊĊ": 3071, "Ġmass": 3072, "ured": 3073, ".class": 3074, "omic": 3075, "Ġmean": 3076, "ips": 3077, "Ġaut": 3078, ");čĊčĊ": 3079, "Ġuntil": 3080, "Ġmarket": 3081, "Ġarea": 3082, "uit": 3083, "Ġlength": 3084, "ĠWith": 3085, "structor": 3086, "event": 3087, "\"><": 3088, "ĠSp": 3089, "IV": 3090, "Ġmus": 3091, "iff": 3092, "Ġkind": 3093, "author": 3094, "ounds": 3095, "mb": 3096, "_key": 3097, "width": 3098, "pository": 3099, "Ġlight": 3100, "uk": 3101, "Row": 3102, "ohn": 3103, "alf": 3104, "vironment": 3105, "apper": 3106, "ollections": 3107, "Ġside": 3108, "_info": 3109, "Ġexample": 3110, "imary": 3111, "Ġwr": 3112, "Ġcamp": 3113, "cribe": 3114, "\"/": 3115, "Ġmiss": 3116, "way": 3117, "Ġbased": 3118, "Ġplan": 3119, "Vis": 3120, "omain": 3121, "unk": 3122, "Ġaway": 3123, "UP": 3124, "<T": 3125, "OS": 3126, "iod": 3127, "ĠMon": 3128, "âĢĻre": 3129, "Ġlik": 3130, "Ã§": 3131, "ively": 3132, ".v": 3133, "imer": 3134, "izer": 3135, "Sub": 3136, "Ġbutton": 3137, "ĠUp": 3138, "Ġexperience": 3139, "CL": 3140, "Ġrender": 3141, "_value": 3142, "Ġnear": 3143, "URL": 3144, "alt": 3145, "Ġcountry": 3146, "ibility": 3147, "(),Ċ": 3148, "ead": 3149, "Ġauthor": 3150, "Ġspecific": 3151, "base": 3152, "(name": 3153, "ones": 3154, "ĠDo": 3155, "Ġalong": 3156, "year": 3157, "Ġexpress": 3158, ".'": 3159, "env": 3160, "Ġbegin": 3161, "Ġsoftware": 3162, "Ġimp": 3163, "Ġwin": 3164, "Ã³n": 3165, "Ġthing": 3166, "Trans": 3167, "ĠTHE": 3168, "Ġ<?": 3169, "Ġwhy": 3170, "Ġdoesn": 3171, "ij": 3172, "ging": 3173, "ĉg": 3174, "Ġsingle": 3175, "offset": 3176, "arning": 3177, "ograph": 3178, "ley": 3179, "_count": 3180, "Ġanal": 3181, "create": 3182, "/m": 3183, "ĠReg": 3184, "unch": 3185, "=$": 3186, "isk": 3187, "Ġrights": 3188, "(M": 3189, "Ġ\"\"\"Ċ": 3190, "aper": 3191, ".model": 3192, "Ġpo": 3193, "empty": 3194, "artment": 3195, "Ġant": 3196, "ĠWhen": 3197, "Ġwomen": 3198, "ĠEd": 3199, "Ġseason": 3200, "Ġdest": 3201, "Ã£": 3202, "(h": 3203, "Ġpossible": 3204, "Ġsever": 3205, "Ġbtn": 3206, "Ġdidn": 3207, "Ġsent": 3208, "Ġenc": 3209, "Ġcommand": 3210, "Ġ],Ċ": 3211, "_x": 3212, "Ġrecent": 3213, "olution": 3214, "vector": 3215, "ĠBy": 3216, "ĠMay": 3217, "ĠAct": 3218, "»¿": 3219, "Ġmoney": 3220, "INT": 3221, "bsite": 3222, "ĉp": 3223, ".čĊ": 3224, "ï»¿": 3225, "sl": 3226, "attern": 3227, "ĠClass": 3228, "Ġtold": 3229, "udio": 3230, "current": 3231, "Ġequ": 3232, "Ġauto": 3233, "ĠState": 3234, "da": 3235, "msg": 3236, "));ĊĊ": 3237, "Ġworking": 3238, "Ġquery": 3239, "ĠBr": 3240, "Ġwindow": 3241, "auth": 3242, "only": 3243, "ĉt": 3244, "Ġleast": 3245, "agn": 3246, "Ġexpl": 3247, "itter": 3248, "aring": 3249, "Ġcolumn": 3250, "ĠGeneral": 3251, "\":\"": 3252, "eral": 3253, "rior": 3254, "Ġrecord": 3255, "IB": 3256, "EX": 3257, "Ġdat": 3258, "Ġmaking": 3259, "ued": 3260, "ĠCar": 3261, "emp": 3262, "\".": 3263, "ĠMed": 3264, "Ġclose": 3265, "Ġpercent": 3266, "Ġpast": 3267, "(g": 3268, ":(": 3269, "Ġwrite": 3270, "Ġmove": 3271, "Ġpat": 3272, "Control": 3273, ".To": 3274, "Ġvi": 3275, "*/Ċ": 3276, "inate": 3277, "'ll": 3278, "aged": 3279, "Null": 3280, "Ġspecial": 3281, "IZE": 3282, "Ġcity": 3283, "/*Ċ": 3284, "ĠEng": 3285, "ixed": 3286, "inary": 3287, "py": 3288, "Ġeff": 3289, "ario": 3290, "Ġtell": 3291, "avor": 3292, "Ġselect": 3293, "level": 3294, "imum": 3295, "oper": 3296, "Builder": 3297, "IP": 3298, "'),Ċ": 3299, "esc": 3300, "Ġfont": 3301, "\";ĊĊ": 3302, "ĠAm": 3303, "ished": 3304, "ills": 3305, "Inter": 3306, "OW": 3307, "Ġcourse": 3308, "Ġlate": 3309, "iddle": 3310, "Ġamount": 3311, "Ġasync": 3312, "ino": 3313, "cul": 3314, "Ġì": 3315, "andle": 3316, "_user": 3317, "Ġben": 3318, "ĠCal": 3319, "Ġ$_": 3320, "ĠRep": 3321, "Ġenough": 3322, "Token": 3323, ".user": 3324, "(j": 3325, "Sc": 3326, "Width": 3327, "now": 3328, "atform": 3329, "Ġlooking": 3330, "Ġhold": 3331, "Module": 3332, "ITY": 3333, "vo": 3334, "ison": 3335, ".Data": 3336, "yc": 3337, "Ġpot": 3338, "ĠTrump": 3339, "idual": 3340, "ides": 3341, "rt": 3342, "Ġproperty": 3343, "ĠĠĠĠĠĠĠĠĠĠĠĠĠĠĠĠĠĠĠĠĠĠĠĠĠĠĠĠĠĠĠĠĠĠĠĠĠĠĠĠĠĠĠ": 3344, "amework": 3345, "go": 3346, "Ġlow": 3347, "Ġpara": 3348, "Ġprice": 3349, "ury": 3350, "Ġtoday": 3351, "roy": 3352, "Ġ'/": 3353, "Ġpolit": 3354, "Ġ''": 3355, "ymb": 3356, "Ph": 3357, "Ġadv": 3358, "Ġattack": 3359, "ĠSte": 3360, "ROM": 3361, "ana": 3362, "Ġmeans": 3363, "Ġstory": 3364, "ids": 3365, "aken": 3366, "Ġmeet": 3367, "Ġmom": 3368, "ĠâĢĺ": 3369, "Ġ?>": 3370, "Ġden": 3371, "obile": 3372, "change": 3373, "ĠĠĠĠĠĠĠĠĠĠĠĠĊ": 3374, "ici": 3375, "na": 3376, "ĠForm": 3377, "Ġsort": 3378, "Select": 3379, "pare": 3380, "Ġthought": 3381, "_con": 3382, "Ġtask": 3383, "ocus": 3384, "ĠDE": 3385, "ĠMin": 3386, "Ġopt": 3387, "ĉbreak": 3388, "umer": 3389, "KE": 3390, "then": 3391, "Ġdet": 3392, "ĠTest": 3393, "ports": 3394, "Ġreview": 3395, "('/": 3396, "move": 3397, "Ġswitch": 3398, "ERT": 3399, "patch": 3400, "annot": 3401, "ãĤ": 3402, "Ġabove": 3403, "itive": 3404, "Ġquestion": 3405, "ĠQu": 3406, "ãĢĤĊĊ": 3407, "gle": 3408, "Ġword": 3409, "Ġprovide": 3410, "ĠReturn": 3411, "Ġresearch": 3412, "Ã£o": 3413, "ustr": 3414, "Ġpublish": 3415, "chema": 3416, "}}": 3417, "ĠCON": 3418, "-in": 3419, "allback": 3420, "Ġcover": 3421, "\\\\": 3422, "color": 3423, "ĠIS": 3424, "Ġwhether": 3425, "imate": 3426, "isc": 3427, "Bar": 3428, "Ġdiv": 3429, "Be": 3430, "ourn": 3431, "Ġhaving": 3432, "lem": 3433, "player": 3434, "abs": 3435, "amera": 3436, "ney": 3437, "Ġexc": 3438, "gether": 3439, "plied": 3440, "ao": 3441, "[$": 3442, "Ġ++": 3443, "ipe": 3444, "show": 3445, "/d": 3446, "[:": 3447, "agement": 3448, "lev": 3449, "_ID": 3450, "rary": 3451, "ades": 3452, "_se": 3453, "ause": 3454, "Ġemploy": 3455, "Ġ*/čĊ": 3456, "Ġfre": 3457, "Ġ'@": 3458, "Ġcomplet": 3459, "Ġlarge": 3460, "ral": 3461, "\\x": 3462, "Ġfac": 3463, "<String": 3464, "Ġcreated": 3465, "uper": 3466, ".state": 3467, "Ġhost": 3468, "eneric": 3469, "/b": 3470, "(!": 3471, "while": 3472, "ias": 3473, "BUG": 3474, "Ġ);ĊĊ": 3475, "Ġrole": 3476, "Reg": 3477, "ĠColor": 3478, "Start": 3479, "Ġporn": 3480, "top": 3481, "Ġweb": 3482, "Ġdev": 3483, "Ġdeal": 3484, "++)Ċ": 3485, "Integer": 3486, "position": 3487, ".on": 3488, "Ġ(\"": 3489, "ä¸": 3490, "Ġproblem": 3491, "sv": 3492, "Ġpress": 3493, "ABLE": 3494, "ATION": 3495, "ĠSee": 3496, "anch": 3497, "Ġthough": 3498, "leep": 3499, "Ġ<!--": 3500, "Ġpoints": 3501, "ĠĠĠĠĠĠĠĠĠĠĠĠĠĠĠĠĠĠĠĠĠĠĠĠĠ": 3502, ".J": 3503, "Ġ::": 3504, "ptr": 3505, "DB": 3506, "++;Ċ": 3507, ".png": 3508, "node": 3509, "soft": 3510, "pond": 3511, "Ġever": 3512, "----------------------------------------------------------------": 3513, "Menu": 3514, "('#": 3515, "Ġservices": 3516, "pg": 3517, "})Ċ": 3518, "params": 3519, "Ġactually": 3520, "Ġ\"/": 3521, "Empty": 3522, "Method": 3523, "Ġident": 3524, "unic": 3525, "Ġmillion": 3526, "Ġaff": 3527, "style": 3528, "Ġconc": 3529, "ios": 3530, "ignment": 3531, "ULT": 3532, "Pr": 3533, "\";čĊ": 3534, "Ġunderstand": 3535, "uary": 3536, "Ġhappen": 3537, "Ġserver": 3538, "ĠCo": 3539, "SC": 3540, "Ġles": 3541, "Ġfiles": 3542, "Grid": 3543, "sql": 3544, "Ġoften": 3545, "Ġinfo": 3546, "_tr": 3547, "src": 3548, "ony": 3549, "Ġspace": 3550, "umb": 3551, "Ġpassword": 3552, "Ġstore": 3553, ",ĊĊ": 3554, "ĠWhat": 3555, "ged": 3556, "ĠFalse": 3557, "Us": 3558, "swer": 3559, "_index": 3560, "Ġformat": 3561, "most": 3562, "sm": 3563, "New": 3564, "Ġdetails": 3565, "Ġprob": 3566, "ĠAND": 3567, "()čĊ": 3568, "ilar": 3569, "Ġ${": 3570, "rypt": 3571, ".Collections": 3572, "$this": 3573, "ĠFree": 3574, "_of": 3575, "(false": 3576, "dated": 3577, "Ġ>>": 3578, "Ġface": 3579, "CTION": 3580, "Ġsave": 3581, "Ġtyp": 3582, "dev": 3583, "(\"#": 3584, "AGE": 3585, "container": 3586, "edit": 3587, "QL": 3588, "Ġitems": 3589, "Ġsocial": 3590, "ien": 3591, "ĠReact": 3592, ").ĊĊ": 3593, "Ġmar": 3594, "Ġredu": 3595, "ĠRE": 3596, ".put": 3597, "Ġmajor": 3598, "Cell": 3599, "next": 3600, "Ġexpected": 3601, "Ġyet": 3602, "Ġindiv": 3603, "tributes": 3604, "atis": 3605, "amed": 3606, "Ġfood": 3607, "Source": 3608, "(string": 3609, "Ġ+Ċ": 3610, "ites": 3611, "dr": 3612, "Ġmembers": 3613, "Ġcomb": 3614, "items": 3615, "ĠPer": 3616, "TH": 3617, "=True": 3618, "Ġbar": 3619, "_SE": 3620, "comm": 3621, "(w": 3622, ")ĊĊĊ": 3623, "Ġsend": 3624, "Ġinc": 3625, "unsigned": 3626, "FA": 3627, "Ġparams": 3628, "apping": 3629, "ros": 3630, "ugin": 3631, "fa": 3632, "Ġconnection": 3633, "Ġ};ĊĊ": 3634, "Ġbecome": 3635, "Mode": 3636, "Ġev": 3637, "Ġdiff": 3638, "ĠUnited": 3639, "Height": 3640, "fully": 3641, "images": 3642, "Ġmakes": 3643, "Ġglobal": 3644, "Ġcontact": 3645, "':Ċ": 3646, "Ġabs": 3647, "Ð°Ð": 3648, "float": 3649, "Ġexcept": 3650, "ĠPol": 3651, "Child": 3652, "typ": 3653, "Ġcertain": 3654, "iÃ³n": 3655, "OUT": 3656, "Ġimpro": 3657, "iles": 3658, "Ġ-->Ċ": 3659, "ĠPart": 3660, "values": 3661, "oss": 3662, "/**": 3663, "ilit": 3664, "ĠEvent": 3665, "curity": 3666, "ster": 3667, "Ġcharacter": 3668, "Ġnews": 3669, "Ġ\",": 3670, "Ġdevice": 3671, "cel": 3672, "login": 3673, "heet": 3674, "Default": 3675, "@\"": 3676, "ĉĠ": 3677, "click": 3678, "(value": 3679, "ĠAb": 3680, "Ġprevious": 3681, "ERROR": 3682, "ocal": 3683, "Ġmaterial": 3684, "Ġbelow": 3685, "ĠChrist": 3686, "Ġmedia": 3687, "cover": 3688, "ĠUI": 3689, "Ġfail": 3690, "Ġblack": 3691, "Ġcomponent": 3692, "ĠAmerican": 3693, "Ġadded": 3694, "Ġbuy": 3695, "stit": 3696, "Ġcame": 3697, "Ġdelete": 3698, "property": 3699, "oding": 3700, "Ġcard": 3701, "rops": 3702, "Ġhttps": 3703, "Ġroot": 3704, "Ġhandle": 3705, "CC": 3706, "Back": 3707, "emplate": 3708, "Ġgetting": 3709, "_by": 3710, "mail": 3711, "_sh": 3712, ".assert": 3713, "ĠDec": 3714, "(true": 3715, "Ġcomput": 3716, "Ġclaim": 3717, "'=>": 3718, "ĠSub": 3719, "Ġair": 3720, "ops": 3721, "nav": 3722, "ements": 3723, "(id": 3724, "Ġenter": 3725, "anged": 3726, "End": 3727, "Ġlocation": 3728, "Ġnight": 3729, "Ġdoing": 3730, "ĠRed": 3731, "lin": 3732, "}ĊĊĊ": 3733, "vider": 3734, "Ġpick": 3735, "Ġwatch": 3736, "essages": 3737, "Ġhuman": 3738, "Ġdam": 3739, "pend": 3740, "dir": 3741, "Ġtax": 3742, "Ġgirl": 3743, "reet": 3744, "Ġbox": 3745, "Ġstrong": 3746, "(v": 3747, "rel": 3748, "Ġinterface": 3749, "Ġmsg": 3750, "fect": 3751, "_at": 3752, "Ġhouse": 3753, "Ġtrack": 3754, "');ĊĊ": 3755, "je": 3756, "ĠJohn": 3757, "istr": 3758, "(S": 3759, "ube": 3760, "Ġce": 3761, "itted": 3762, "VER": 3763, "*)": 3764, "parent": 3765, "Ġapplication": 3766, "any": 3767, ".swing": 3768, "Ġpack": 3769, "\\u": 3770, "Ġpract": 3771, "Ġsection": 3772, "ctx": 3773, "Ġunsigned": 3774, ".Point": 3775, "ĠOne": 3776, "Ä±": 3777, "iple": 3778, "aid": 3779, "Ñĥ": 3780, "Vector": 3781, "byte": 3782, "Ġwait": 3783, "ĠÃł": 3784, "Ã¥": 3785, "Ġtogether": 3786, "Ġthrows": 3787, "FO": 3788, "'))": 3789, "host": 3790, "ising": 3791, ".view": 3792, "Ġterms": 3793, "framework": 3794, "-r": 3795, "Ġapply": 3796, "Ġsession": 3797, "Options": 3798, "uggest": 3799, "Ġothers": 3800, "witter": 3801, "Ġfund": 3802, "Init": 3803, "__(": 3804, "ensor": 3805, "GET": 3806, "Ġseveral": 3807, "ii": 3808, "[j": 3809, "IO": 3810, "Ġtemplate": 3811, "Position": 3812, "Ġecon": 3813, "achine": 3814, "Ġil": 3815, ".spring": 3816, "main": 3817, "elt": 3818, "iment": 3819, "Rec": 3820, "mm": 3821, "ĠUniversity": 3822, "ursor": 3823, "ĠĠĠĠĠĠĠĠĠĠĠĠĠĠĠĠĠĠĠĠ": 3824, "GL": 3825, "icture": 3826, "ithub": 3827, "cer": 3828, "cast": 3829, "From": 3830, "ales": 3831, "Ġsubject": 3832, "password": 3833, "ny": 3834, "Ġesc": 3835, ".write": 3836, "ï¼Į": 3837, "What": 3838, ".H": 3839, "Ġhistory": 3840, "ĠFe": 3841, "Ġindividual": 3842, "unit": 3843, "Ġ-->": 3844, "Ġdu": 3845, "IST": 3846, "Ġusers": 3847, "fs": 3848, "false": 3849, "unt": 3850, "Title": 3851, "Ġmot": 3852, "Ġfuture": 3853, "ached": 3854, "Ġstarted": 3855, "Ġmode": 3856, "Ġ'<": 3857, "_array": 3858, "Ġax": 3859, "'];Ċ": 3860, "ires": 3861, "There": 3862, "ught": 3863, "tml": 3864, "posed": 3865, "icult": 3866, "Ġtook": 3867, "Ġgames": 3868, "Ġ}}": 3869, "Ġ?>Ċ": 3870, "Ġproducts": 3871, "Is": 3872, "Ġbad": 3873, "ĠDes": 3874, ".path": 3875, "'ĊĊ": 3876, "ĠPost": 3877, "avel": 3878, "(:": 3879, "Ġneeds": 3880, "Ġknown": 3881, "Fl": 3882, "Ġexec": 3883, "Ġseen": 3884, "ume": 3885, "Ġborder": 3886, "Ġlive": 3887, "temp": 3888, "Per": 3889, "Ġvariable": 3890, "iet": 3891, "ĠDef": 3892, "Ġge": 3893, "eme": 3894, "_back": 3895, "first": 3896, "Ġprovided": 3897, "////////////////////////////////": 3898, "Ġfilename": 3899, "Ġhope": 3900, "uly": 3901, "auto": 3902, "find": 3903, "_string": 3904, "btn": 3905, "itude": 3906, "Attribute": 3907, "Ġyoung": 3908, ".txt": 3909, "Ġwebsite": 3910, "ĠProp": 3911, "Ġey": 3912, ">();Ċ": 3913, "ional": 3914, "ARR": 3915, "ictionary": 3916, "urther": 3917, ".</": 3918, "ALL": 3919, "Ġstudy": 3920, "ili": 3921, "Ġnetwork": 3922, "yl": 3923, "istance": 3924, "OK": 3925, "NU": 3926, "rest": 3927, "ĠST": 3928, "icrosoft": 3929, "Ġlimit": 3930, "Ġcut": 3931, "():Ċ": 3932, "Ġcou": 3933, "ogn": 3934, "Ġsizeof": 3935, "ival": 3936, "Ġwent": 3937, ".z": 3938, "Link": 3939, "Ġfire": 3940, "Ġacross": 3941, "Ġcommunity": 3942, "region": 3943, "NE": 3944, "Ref": 3945, "Ġofficial": 3946, "Ġvisit": 3947, "olve": 3948, "Ġreceived": 3949, "Ġtoken": 3950, "Ġmonths": 3951, "Ġanim": 3952, "Ġparticular": 3953, "styles": 3954, "ico": 3955, "Ġess": 3956, ".Control": 3957, "ĠÃ©": 3958, "ball": 3959, "Ġlearn": 3960, "inding": 3961, "Var": 3962, "Ġdecl": 3963, "(err": 3964, "LECT": 3965, "One": 3966, "pha": 3967, "Ġ~": 3968, "fort": 3969, "asure": 3970, "Ġmind": 3971, "ĠEnd": 3972, "Check": 3973, "Ġquick": 3974, "\"),": 3975, "AND": 3976, "utions": 3977, "Base": 3978, "________": 3979, "Ġcomment": 3980, "INE": 3981, "âĢĻve": 3982, "But": 3983, "ĠEl": 3984, "ĠUs": 3985, "Ġadmin": 3986, "mark": 3987, "ĠName": 3988, "`Ċ": 3989, "ĠType": 3990, "amic": 3991, "pc": 3992, "loor": 3993, "FT": 3994, "Ġopp": 3995, "cket": 3996, ")->": 3997, "tx": 3998, "Ġpur": 3999, "uel": 4000, "ymbol": 4001, "uation": 4002, "anger": 4003, "Ġbackground": 4004, "ecess": 4005, "efined": 4006, "........": 4007, "Ġdescription": 4008, "Ġrepresent": 4009, "\"));Ċ": 4010, "pression": 4011, "rowser": 4012, "Ġseries": 4013, "wards": 4014, "($_": 4015, "aise": 4016, "Ġhot": 4017, "acity": 4018, "ries": 4019, "actions": 4020, "Create": 4021, "adio": 4022, "amples": 4023, "Ġoriginal": 4024, "ensive": 4025, "font": 4026, "stream": 4027, "ï»¿using": 4028, ".springframework": 4029, "server": 4030, "Ġbill": 4031, "ACK": 4032, "ilename": 4033, "Ġframe": 4034, "Ġ=Ċ": 4035, "Edit": 4036, "adius": 4037, "Ġdraw": 4038, "anks": 4039, "Ġdeter": 4040, "Ġcomes": 4041, "_int": 4042, "Ġforeach": 4043, "angle": 4044, "Ġelect": 4045, "pected": 4046, "Header": 4047, "istration": 4048, "False": 4049, "ĠGame": 4050, "Ġfilter": 4051, "Activity": 4052, "Ġlarg": 4053, "inition": 4054, "Ġ\"<": 4055, "ised": 4056, "Ġremove": 4057, "ĠTrans": 4058, "met": 4059, "see": 4060, "Format": 4061, "Command": 4062, "ĠEX": 4063, "None": 4064, "Ġfront": 4065, "ASE": 4066, "ĠRec": 4067, "oundation": 4068, "Ġvo": 4069, "=\\\"": 4070, "(*": 4071, "Change": 4072, ".Write": 4073, "group": 4074, "ients": 4075, "uy": 4076, "****************************************************************": 4077, "Ġdig": 4078, "hr": 4079, "(-": 4080, "Ġgen": 4081, "number": 4082, "vec": 4083, "urope": 4084, "entry": 4085, "LL": 4086, "Ġste": 4087, "Valid": 4088, "'],": 4089, "_param": 4090, "Ġselected": 4091, "Ġaccording": 4092, "ĠDis": 4093, "Ġutil": 4094, "Buffer": 4095, "_error": 4096, "Ġassoci": 4097, "_SIZE": 4098, "Ġwor": 4099, "Ġprintf": 4100, "rag": 4101, "Âł": 4102, "DD": 4103, "ĠVal": 4104, "Ġactiv": 4105, "Eng": 4106, "etime": 4107, "Ġvirtual": 4108, "aign": 4109, "aur": 4110, "ĠPres": 4111, "ĠException": 4112, "Ġanything": 4113, "ĠOff": 4114, "Ġhours": 4115, "Ġwar": 4116, "Args": 4117, "aging": 4118, "Ġmodels": 4119, "ĠTime": 4120, "Ob": 4121, "ams": 4122, "joy": 4123, "Ġearly": 4124, ".read": 4125, "Ġcenter": 4126, "ĠInitial": 4127, "Ġlanguage": 4128, "length": 4129, "xy": 4130, "Ġsn": 4131, "Ġinf": 4132, "Post": 4133, "Ġago": 4134, "Ġeasy": 4135, "_code": 4136, "ĠANY": 4137, "_ch": 4138, "Ġdownload": 4139, "(T": 4140, "aved": 4141, "âĢĵ": 4142, "Ġstudents": 4143, "Ġfig": 4144, "light": 4145, "xx": 4146, "Ġbuffer": 4147, "ĠDep": 4148, "ĠMath": 4149, "ITH": 4150, "Ġvari": 4151, "Ġdue": 4152, "Factory": 4153, "Ġpor": 4154, "Ġep": 4155, "otype": 4156, "Ġcannot": 4157, "Ġwhite": 4158, "<int": 4159, "tern": 4160, "Ġregister": 4161, "Ġpred": 4162, "clus": 4163, "_date": 4164, "Ġ/**": 4165, "Ġauth": 4166, "Ġ[]Ċ": 4167, "Ġperiod": 4168, "nown": 4169, "Ġvot": 4170, "Ġscreen": 4171, "'d": 4172, "Types": 4173, "Ġtmp": 4174, "ÐµÐ": 4175, "ural": 4176, "Ġbenef": 4177, "_y": 4178, "Ġnet": 4179, "ĠStates": 4180, "']['": 4181, "ĠNe": 4182, "ĠNOT": 4183, "Ġneg": 4184, "Ġcommon": 4185, "scope": 4186, "Ġcred": 4187, "ges": 4188, "_TYPE": 4189, "Ġsuggest": 4190, "oom": 4191, ".ĊĊĊ": 4192, "Ġaccept": 4193, "Ġrandom": 4194, "erm": 4195, "ĠVector": 4196, "with": 4197, "TER": 4198, "(str": 4199, "Ġrespons": 4200, "Ġhit": 4201, ".Set": 4202, "grid": 4203, "ria": 4204, "Ġclick": 4205, "undle": 4206, "Case": 4207, "insert": 4208, "Utils": 4209, "Ġ\"\"\"": 4210, "Ġimplement": 4211, "atal": 4212, "tempt": 4213, "template": 4214, "ocr": 4215, "returns": 4216, "Ġplayers": 4217, "users": 4218, "edef": 4219, "ĠThese": 4220, "Ġamong": 4221, "Ġdeb": 4222, "ha": 4223, ".getElement": 4224, "Ġcirc": 4225, "Ġanswer": 4226, "Ġwalk": 4227, "Ġtreat": 4228, "ĠGe": 4229, "ĠCreate": 4230, "Ġage": 4231, "Ġreq": 4232, "OST": 4233, "angular": 4234, "Ñı": 4235, "Ġfive": 4236, "Ġdistributed": 4237, "Ġfriend": 4238, "TP": 4239, "Ġclean": 4240, "ows": 4241, ".Controls": 4242, "dis": 4243, "Ġwords": 4244, ".io": 4245, "zy": 4246, "Ġheader": 4247, "ĠCheck": 4248, "âĢĻm": 4249, "just": 4250, "holder": 4251, "=\"<?": 4252, "ĠGNU": 4253, "ĠCol": 4254, "imest": 4255, "entic": 4256, "{ĊĊ": 4257, "Ġtre": 4258, "last": 4259, "la": 4260, "ĠYork": 4261, "Lo": 4262, "Ġdiscuss": 4263, "ĠGod": 4264, "Ġissue": 4265, "rew": 4266, "Window": 4267, "Ġland": 4268, "Ġstream": 4269, "ĠPar": 4270, "Ġquality": 4271, "Par": 4272, "_num": 4273, "Ġsal": 4274, "elves": 4275, "ORD": 4276, "(user": 4277, "Ġworks": 4278, "Ġhalf": 4279, "enses": 4280, "vas": 4281, "Ġpolice": 4282, "(\"/": 4283, "ua": 4284, "Ġsimple": 4285, "Address": 4286, "Ġempty": 4287, "esh": 4288, "Update": 4289, "ĠCreated": 4290, "('.": 4291, ").Ċ": 4292, "ĠĠĠĠĠĠĠĠĠĠĠĠĠĠĠĠĠĠ": 4293, "Ġagre": 4294, "ĠFROM": 4295, "Ġcook": 4296, "Ġeverything": 4297, "ilities": 4298, ".status": 4299, "Ġrelations": 4300, "extern": 4301, "Ġnothing": 4302, "Ġrunning": 4303, "ĉvoid": 4304, "RI": 4305, "_a": 4306, "_CON": 4307, "por": 4308, ".sub": 4309, "require": 4310, "ĠCity": 4311, "ĠWest": 4312, "Ġmor": 4313, "store": 4314, "Equals": 4315, "oder": 4316, "Ġna": 4317, "Ġ[[": 4318, "Ġ('": 4319, "ĠDon": 4320, "ERS": 4321, "/p": 4322, ".json": 4323, "abor": 4324, "Ġsomeone": 4325, "_text": 4326, ".css": 4327, ".Tab": 4328, "ĠSome": 4329, "ato": 4330, "double": 4331, "Ġshare": 4332, "(void": 4333, "_dir": 4334, "Ġur": 4335, "Stack": 4336, "ĠWorld": 4337, ".X": 4338, "stract": 4339, "How": 4340, ".Generic": 4341, "icles": 4342, "Ġentry": 4343, "Ġchanges": 4344, "Ġpersonal": 4345, "(A": 4346, "Ġoffset": 4347, "_ptr": 4348, "Ġpie": 4349, "ĠJan": 4350, "-group": 4351, "module": 4352, "Items": 4353, "ĠHowever": 4354, "verage": 4355, ".Font": 4356, "Ġevents": 4357, ".min": 4358, "Ġinvol": 4359, "za": 4360, "Ġwhole": 4361, "Ġneeded": 4362, "Ġlikely": 4363, "rief": 4364, "ORM": 4365, "version": 4366, "Ġfight": 4367, "Ġein": 4368, "Frame": 4369, "gen": 4370, "ĠOut": 4371, "avigation": 4372, "Length": 4373, "illed": 4374, "quence": 4375, "Ġ!==": 4376, "ĠSoftware": 4377, "Ġwriting": 4378, "Ġrate": 4379, "'],Ċ": 4380, "Panel": 4381, "inner": 4382, "Ġ[\"": 4383, "Ġtw": 4384, "cd": 4385, "Ġ;Ċ": 4386, "_state": 4387, "ĠSm": 4388, "ĠMark": 4389, "))ĊĊ": 4390, "prot": 4391, "ĠMr": 4392, "method": 4393, "ustomer": 4394, "Icon": 4395, "Ġcorrect": 4396, "(object": 4397, "ĠMore": 4398, "Ġfall": 4399, "Ġvol": 4400, "Ġdevelopment": 4401, "ently": 4402, "Ġsi": 4403, "medi": 4404, "ving": 4405, "PP": 4406, "aker": 4407, "Ġindu": 4408, "Ġelif": 4409, "Ġpret": 4410, "Ġbelieve": 4411, "ns": 4412, "omet": 4413, "ĠIntern": 4414, "Rect": 4415, "So": 4416, ".error": 4417, "Read": 4418, "Ġfeatures": 4419, "Ġminutes": 4420, "---": 4421, "asing": 4422, "cret": 4423, "\">čĊ": 4424, ".annot": 4425, "Ġcollection": 4426, "'.": 4427, "Ġsimilar": 4428, "Ġtaken": 4429, "(\"%": 4430, "Order": 4431, "']Ċ": 4432, "-md": 4433, "ĠTH": 4434, "aced": 4435, "Ġisn": 4436, "/j": 4437, "Ġson": 4438, "graph": 4439, "ĠInteger": 4440, "Ġnecess": 4441, "reen": 4442, "Ġum": 4443, "Ġ\\<": 4444, "Ġmoment": 4445, "Ġbring": 4446, "Ġindic": 4447, "ysis": 4448, "Level": 4449, "verse": 4450, "urrenc": 4451, "_test": 4452, "Ġentire": 4453, "Down": 4454, "Ġ}ĊĊĊ": 4455, "(result": 4456, "ĠRead": 4457, "Ã¨": 4458, "Mod": 4459, "Ġtrying": 4460, "\"),Ċ": 4461, "Ġmember": 4462, "ĠCor": 4463, "ODO": 4464, "-control": 4465, "untime": 4466, "ĠSim": 4467, "Dialog": 4468, "plot": 4469, "_on": 4470, "Ġphys": 4471, "}/": 4472, "Ġnamespace": 4473, "ĉčĊ": 4474, "acc": 4475, "Player": 4476, "ARE": 4477, "Ġfoot": 4478, "Ġboard": 4479, "part": 4480, "Ġsus": 4481, "wise": 4482, "ĠMc": 4483, "Ġpush": 4484, "ATA": 4485, "Ġplease": 4486, "ried": 4487, "weet": 4488, "bit": 4489, "ided": 4490, "VE": 4491, "ĠSw": 4492, "UB": 4493, "Ġtypes": 4494, "edia": 4495, "Ġclos": 4496, "acebook": 4497, "When": 4498, "Ġedit": 4499, "igger": 4500, "Ġenerg": 4501, "Container": 4502, "Ġphot": 4503, "ĠCount": 4504, "ĠEurope": 4505, ".Is": 4506, "ĠRuss": 4507, "peed": 4508, "ĠStr": 4509, "Ġpy": 4510, "Ġcult": 4511, "Ġdefined": 4512, "ccount": 4513, "Ġobt": 4514, ".Location": 4515, "Ġthread": 4516, "ille": 4517, "Ġinstead": 4518, "strong": 4519, "ĠSec": 4520, "URE": 4521, "Ġidea": 4522, ".se": 4523, "emy": 4524, "selected": 4525, "Connection": 4526, "acing": 4527, "thread": 4528, ".next": 4529, "Ġcoll": 4530, "Ġfilm": 4531, "istic": 4532, "Ġcompet": 4533, "Ġconn": 4534, "though": 4535, "Ġcompan": 4536, "ocket": 4537, "Ġteach": 4538, "=(": 4539, "Ġphone": 4540, "Ġactive": 4541, "delete": 4542, "tries": 4543, "Ġmo": 4544, "Ġdeath": 4545, "});ĊĊ": 4546, "ocol": 4547, "Widget": 4548, "Ġarticle": 4549, "rodu": 4550, "andid": 4551, "Ñĭ": 4552, "ĠCr": 4553, "ka": 4554, "():": 4555, "lood": 4556, "ĉĉĉĊ": 4557, "Ġalmost": 4558, "Ġsell": 4559, "ervlet": 4560, "rip": 4561, "Unit": 4562, "Ġapplic": 4563, "Ġconnect": 4564, "Ġfeature": 4565, "Ġvia": 4566, "'),": 4567, "Ġlim": 4568, "ĠĠĠĠĠĠĠĠĠĠĠĠĠĠĠĠĠĠĠĠĠĠĠĠĠĠĠĠĠĠĠĠĠĠĠĠĠĠĠĠĠĠĠĠĠĠĠ": 4569, "ĠGu": 4570, "Engine": 4571, "Ġens": 4572, "Ġenvironment": 4573, "block": 4574, "HERE": 4575, "NULL": 4576, "gy": 4577, "tag": 4578, ")).": 4579, "exp": 4580, "Ġcompl": 4581, "Ġinstall": 4582, "Ġcomplete": 4583, "queue": 4584, "atural": 4585, "Ġgeneral": 4586, "thon": 4587, "Ġasked": 4588, "ores": 4589, "(res": 4590, "Ġreserved": 4591, "SP": 4592, "ĠâĢ¦": 4593, "ÅĤ": 4594, "Ġsignific": 4595, "Off": 4596, "ĠĠĠĠĠĠĠĠĠĠĠĠĠĠĠĠĠĠĠĠĠĠĠĠĠĠĠĠĠ": 4597, "ĠAg": 4598, "ĠJust": 4599, "ĠError": 4600, "Ġinfl": 4601, "adata": 4602, "Ġicon": 4603, "asks": 4604, "''": 4605, "_LO": 4606, "?.": 4607, "account": 4608, "Ġ(*": 4609, "')ĊĊ": 4610, "rap": 4611, "_var": 4612, "ĠFOR": 4613, "Ġparty": 4614, "ĠYour": 4615, "cat": 4616, "stry": 4617, ".new": 4618, "boot": 4619, "ĠNov": 4620, "Ġvector": 4621, "Ġnormal": 4622, "Ġfurther": 4623, "Repository": 4624, "Ġdatabase": 4625, "attle": 4626, "Ġmusic": 4627, "Ġspeed": 4628, "Ġdoc": 4629, "process": 4630, "IGHT": 4631, ".parse": 4632, "Ġtaking": 4633, "Ġviol": 4634, "ceed": 4635, "ĠAfter": 4636, "Ġforward": 4637, "Ġcrit": 4638, "\"/>Ċ": 4639, "rot": 4640, "Ġfailed": 4641, "efore": 4642, "Ġconcern": 4643, "oe": 4644, "ba": 4645, "Ġsender": 4646, "Ġterm": 4647, "has": 4648, "=\"#": 4649, "Ġpotential": 4650, "Num": 4651, "Ġpublished": 4652, ".close": 4653, "ĠImage": 4654, "straint": 4655, "UD": 4656, "ĠOb": 4657, "Ġprobably": 4658, "lim": 4659, "\":Ċ": 4660, "olume": 4661, "Ġconsum": 4662, "ague": 4663, "ensions": 4664, "Ġinvestig": 4665, "-year": 4666, "');": 4667, "-sm": 4668, "Ġenjoy": 4669, "orig": 4670, "ering": 4671, "cp": 4672, "leased": 4673, "plements": 4674, "Ġreturns": 4675, "pat": 4676, "BO": 4677, "ĠHouse": 4678, ".Label": 4679, "Ġweight": 4680, "ighb": 4681, "Ġconditions": 4682, "Ġexception": 4683, "description": 4684, "Ġtrad": 4685, "-to": 4686, "Ġ{}": 4687, "Ġmodule": 4688, "END": 4689, ".ap": 4690, ".props": 4691, "Ġconstructor": 4692, "aves": 4693, "Ġfavor": 4694, "ĠNow": 4695, ";i": 4696, "ĠMain": 4697, "_k": 4698, "eries": 4699, "âĢĻll": 4700, "transform": 4701, "imestamp": 4702, "Pre": 4703, "Ġmer": 4704, ".res": 4705, "stant": 4706, "Location": 4707, "_NAME": 4708, "Ġloss": 4709, "ĠĊĊ": 4710, "net": 4711, "Ġengine": 4712, "Block": 4713, "Ġissues": 4714, "Ġparse": 4715, "ĠBar": 4716, "Ġstay": 4717, "ĠJSON": 4718, "Ġdom": 4719, "airs": 4720, "wner": 4721, "Ġlower": 4722, "\",čĊ": 4723, "ĠDem": 4724, "ufact": 4725, "Ġps": 4726, "Ġperfect": 4727, "RL": 4728, "Ġeduc": 4729, "ls": 4730, "emory": 4731, "ARRANT": 4732, "uge": 4733, "Ġexact": 4734, ".key": 4735, "alled": 4736, "ech": 4737, "ief": 4738, "\\/": 4739, "oke": 4740, "Ġformer": 4741, "alloc": 4742, "Ġsix": 4743, "ida": 4744, "Ġmargin": 4745, "Ġheart": 4746, "ald": 4747, "pack": 4748, ".getElementById": 4749, "ĠWARRANT": 4750, "Ġrather": 4751, "Ġbuilding": 4752, "erman": 4753, "lice": 4754, "Ġquestions": 4755, "izes": 4756, "lege": 4757, "irectory": 4758, "Ġje": 4759, "Ġcas": 4760, "props": 4761, "utf": 4762, "Ġsecurity": 4763, "Ġhowever": 4764, "weight": 4765, "Ġinside": 4766, "Ġpresident": 4767, "Char": 4768, "ĠWITH": 4769, ".map": 4770, "Ġgraph": 4771, "Ġtag": 4772, "_status": 4773, "Ġattempt": 4774, "opp": 4775, "uses": 4776, "ĉconst": 4777, "Ġround": 4778, ",$": 4779, "Ġfriends": 4780, "Email": 4781, "?>": 4782, "Resource": 4783, "KEY": 4784, "osp": 4785, ".query": 4786, "ĠNorth": 4787, "ables": 4788, "istrib": 4789, "_class": 4790, "ello": 4791, "That": 4792, "Ðº": 4793, "pecially": 4794, "ĠPresident": 4795, "Ġcampaign": 4796, "Ġalt": 4797, "area": 4798, "Ġchall": 4799, "Ġopport": 4800, ".Con": 4801, "Ġenergy": 4802, "like": 4803, ".string": 4804, "ington": 4805, ")*": 4806, "yy": 4807, "Ġprofession": 4808, "irth": 4809, "Ġseg": 4810, "æľ": 4811, "Ġhor": 4812, "iers": 4813, "can": 4814, "Ġbehind": 4815, "Product": 4816, "fg": 4817, "ĠSk": 4818, ".jpg": 4819, "?:": 4820, "];ĊĊ": 4821, "Ġcallback": 4822, "ĠHttp": 4823, "ÑĮ": 4824, "long": 4825, "MS": 4826, "ATH": 4827, "Ġraise": 4828, "Ġwanted": 4829, "rown": 4830, "utor": 4831, "lt": 4832, "]=": 4833, "eline": 4834, "MA": 4835, "Ġsepar": 4836, "cs": 4837, "semb": 4838, "Dis": 4839, "bserv": 4840, "ĠWill": 4841, "Ġpolicy": 4842, "Ġthird": 4843, "phone": 4844, "Ġbed": 4845, "/g": 4846, ".__": 4847, "ĠInc": 4848, "izing": 4849, ".remove": 4850, "instance": 4851, ".type": 4852, "Ġserv": 4853, "Each": 4854, "Ġhar": 4855, "ĠMessage": 4856, "(key": 4857, "SELECT": 4858, "Pos": 4859, "));čĊ": 4860, "Ġrecomm": 4861, "Ġtraining": 4862, "ĠEnt": 4863, "ĠChar": 4864, "icht": 4865, "(file": 4866, "Ġprior": 4867, "Game": 4868, "Ġexit": 4869, "Params": 4870, ".core": 4871, "PC": 4872, "nes": 4873, "anced": 4874, "(request": 4875, "Password": 4876, "}>Ċ": 4877, "Ġmag": 4878, "Ġrelease": 4879, "Ġshall": 4880, "udent": 4881, "ĠSouth": 4882, "ando": 4883, ":'": 4884, ".TabIndex": 4885, "sk": 4886, "anner": 4887, "isset": 4888, "Ġoutside": 4889, "ledge": 4890, "Ġå": 4891, "ĠRob": 4892, "Ġimm": 4893, "!Ċ": 4894, "ĠWeb": 4895, "Des": 4896, "BC": 4897, "ancial": 4898, "Route": 4899, "Dec": 4900, "ferences": 4901, "Ġpurch": 4902, "ĠModel": 4903, "ctor": 4904, "gn": 4905, "_start": 4906, "_un": 4907, ".*": 4908, "ises": 4909, "Ġground": 4910, "Ġunique": 4911, "Ġbeaut": 4912, "{\"": 4913, "Ġpour": 4914, "ĠOct": 4915, "Ġtree": 4916, "sets": 4917, "_res": 4918, "')->": 4919, "_reg": 4920, "(\"\\": 4921, "Ġbyte": 4922, "Bl": 4923, "Ġdating": 4924, "Ġmatter": 4925, "ĠRem": 4926, "Ġ'../": 4927, "ĠAug": 4928, "ĠLa": 4929, "Ġ$(": 4930, "ournal": 4931, "iam": 4932, "Ġshows": 4933, "write": 4934, "Ġball": 4935, "Ġsimply": 4936, "Ġfast": 4937, "Ġmemory": 4938, "ASS": 4939, "ĠOf": 4940, "oved": 4941, "ante": 4942, "aul": 4943, "istry": 4944, ")));Ċ": 4945, "Ġfit": 4946, "<string": 4947, "Ġpolitical": 4948, "ancel": 4949, "_.": 4950, "card": 4951, ".current": 4952, "och": 4953, "_image": 4954, "\\t": 4955, "#Ċ": 4956, "(L": 4957, "Ġindustry": 4958, "coming": 4959, "Ġextra": 4960, "Ġreported": 4961, ".start": 4962, "Ġresources": 4963, "Ġimg": 4964, "flow": 4965, "_EX": 4966, "(null": 4967, "ĠPre": 4968, "Ġwrong": 4969, "interface": 4970, "Parameter": 4971, "ners": 4972, "á»": 4973, "ture": 4974, "ersist": 4975, "ountry": 4976, "Ġseems": 4977, "alance": 4978, "dest": 4979, "ĉString": 4980, "Ġmaint": 4981, "Ġunit": 4982, "acters": 4983, "ĠTR": 4984, "iful": 4985, "exports": 4986, "project": 4987, "Application": 4988, "legate": 4989, "Ġtakes": 4990, "term": 4991, "Ġetc": 4992, "uster": 4993, "Ġappear": 4994, "address": 4995, "Ġfem": 4996, "hs": 4997, "Ġhom": 4998, ",-": 4999, "Ġdifficult": 5000, "Ġcoming": 5001, "Open": 5002, "Ġsettings": 5003, "ĠWar": 5004, "ĠThen": 5005, "Ġautom": 5006, "ĠFoundation": 5007, "Ġquite": 5008, "Description": 5009, "Ġblog": 5010, "iqu": 5011, "PS": 5012, "_field": 5013, "Json": 5014, "SSION": 5015, "ĠSch": 5016, "ĠLO": 5017, "Ġdescri": 5018, "Ġeveryone": 5019, "Ġpretty": 5020, "Ġlonger": 5021, "Ġmenu": 5022, "Ġcurrently": 5023, "sec": 5024, "Ġrelationship": 5025, "################################": 5026, "ĠMap": 5027, "aset": 5028, "Ġparameters": 5029, "Ġcrush": 5030, "\"čĊ": 5031, "ILITY": 5032, "igration": 5033, "Ġcout": 5034, "total": 5035, "Ġnames": 5036, "ndef": 5037, "\");": 5038, "riend": 5039, "ynamic": 5040, "Ġeffort": 5041, "Ġactual": 5042, "Ġfields": 5043, "OUN": 5044, "ters": 5045, "Ġfix": 5046, "_model": 5047, "Ġcases": 5048, "CA": 5049, "My": 5050, "Interface": 5051, "ĠSE": 5052, "]]": 5053, "alle": 5054, "ĠNational": 5055, "ĠArrayList": 5056, "inline": 5057, ".V": 5058, "ara": 5059, "refix": 5060, "asc": 5061, "Reader": 5062, "ĠÐ¿": 5063, "astic": 5064, "(()": 5065, "Cl": 5066, ".annotation": 5067, "Ġperformance": 5068, "aily": 5069, ".toString": 5070, ".net": 5071, "views": 5072, ".end": 5073, "ayers": 5074, "late": 5075, "ĠApr": 5076, "ederal": 5077, "'])": 5078, ".body": 5079, "Ġhigher": 5080, "_fl": 5081, "cr": 5082, "alert": 5083, "_node": 5084, "ĠGoogle": 5085, "Ġitself": 5086, "Auth": 5087, "urrency": 5088, "Ġsignificant": 5089, "append": 5090, "Ġrespect": 5091, "strap": 5092, "Ġuna": 5093, "riteria": 5094, "PORT": 5095, ".apache": 5096, "Output": 5097, "Ġprogress": 5098, "Ġmid": 5099, "ĠMicrosoft": 5100, "Ġresource": 5101, "ablish": 5102, "Ġdim": 5103, ".load": 5104, ".App": 5105, "Ġdirection": 5106, "Ġadditional": 5107, "ĠĠĠĠĠĠĠĠĠĠĠĠĠĠĠĠĠĠĠĠĠĠĠĠ": 5108, "Ġnumbers": 5109, "Ġcompanies": 5110, ".Th": 5111, "Ġsound": 5112, "username": 5113, "Ġstatement": 5114, "Ġalert": 5115, "Ġcontract": 5116, "home": 5117, "_length": 5118, ".Component": 5119, "ev": 5120, ".Ex": 5121, "ï¼ļ": 5122, "\";": 5123, "ĠHigh": 5124, "Ġ)ĊĊ": 5125, "ĠPoint": 5126, "oph": 5127, "Ġlines": 5128, "->_": 5129, "\")ĊĊ": 5130, "ox": 5131, "application": 5132, "Ġ]Ċ": 5133, "ĊĊĊĊĊĊ": 5134, "Ġsoon": 5135, "ctions": 5136, "inger": 5137, "Ġjoin": 5138, "ĠPe": 5139, "Ġë": 5140, "Ġlas": 5141, ".E": 5142, "css": 5143, "/or": 5144, "ĠStart": 5145, "ĠTO": 5146, "Ġsubs": 5147, "conn": 5148, "components": 5149, "DEBUG": 5150, "quare": 5151, "Function": 5152, "endar": 5153, ".index": 5154, "Ġfill": 5155, "ÄĻ": 5156, "Ġchoose": 5157, "how": 5158, "ĠAmerica": 5159, "assets": 5160, "------------": 5161, "ĠValue": 5162, "Ġoffice": 5163, "Ġveh": 5164, "Ġtransform": 5165, "ĠArt": 5166, "Ġinde": 5167, "Ġfn": 5168, "Ġimplements": 5169, "ango": 5170, "plete": 5171, "+\"": 5172, "tmp": 5173, "amily": 5174, "Ġhash": 5175, "missions": 5176, "EST": 5177, "gt": 5178, "Provider": 5179, "ĠĠĠĠĠĠĠĠĠĠĠĠĠĠĠĠĠĠĠĠĠĠ": 5180, "Ġflag": 5181, "Ġparticip": 5182, "den": 5183, "ĠReturns": 5184, "Ġnote": 5185, "Ã¼r": 5186, "pm": 5187, "ideos": 5188, "Ġspecified": 5189, "ĠEN": 5190, "ester": 5191, "olid": 5192, "Ġupon": 5193, "(std": 5194, "ĉv": 5195, "Ġ'\\": 5196, "uz": 5197, "Ġvert": 5198, "Ġvict": 5199, "ĉself": 5200, "Ġ\"$": 5201, ".k": 5202, "Ġgroups": 5203, "github": 5204, "lang": 5205, "Ġmut": 5206, "TO": 5207, "Ġve": 5208, "ĠPlease": 5209, ";ĊĊĊ": 5210, "access": 5211, "Ġ{\"": 5212, "rea": 5213, "Ġrisk": 5214, "icker": 5215, "oggle": 5216, "ĉwhile": 5217, "ANG": 5218, ".send": 5219, "Ġwoman": 5220, "Ġgets": 5221, "Ġign": 5222, "ĠId": 5223, "_log": 5224, "ONE": 5225, "Ġevid": 5226, "ĠHar": 5227, "_sub": 5228, "Ġendl": 5229, "Ġincluded": 5230, "());ĊĊ": 5231, "ĠAp": 5232, "igr": 5233, "Ġsem": 5234, "ĠBlack": 5235, "doc": 5236, "_table": 5237, "ĠĠĠĠĠĠĠĠĠĠĠĠĠĠĠĠĠĠĠĠĠĠĠĠĠĠĠĠĠĠĠĠĠĠĠĠĠĠĠĠĠĠĠĠĠĠĠĠĠĠĠĠĠĠĠĠĠĠĠĠĠĠĠĠ": 5238, "-up": 5239, "Ġcause": 5240, "Ġ..": 5241, "Ġvan": 5242, "_dict": 5243, "Ġfocus": 5244, "IND": 5245, "CESS": 5246, ".Log": 5247, "Ġmultiple": 5248, "ido": 5249, "Ġregard": 5250, "-M": 5251, "andler": 5252, "ourse": 5253, "Ġdeg": 5254, ".U": 5255, "Ġaddition": 5256, "Ġvarious": 5257, "Ġreceive": 5258, "ÐµÐ½": 5259, "ĠHT": 5260, "Obj": 5261, "DF": 5262, "Ġincrease": 5263, "ĠOpen": 5264, "];": 5265, "Ġcommit": 5266, "?Ċ": 5267, "ategories": 5268, "atory": 5269, "ship": 5270, "ĠMich": 5271, "Ġhtml": 5272, "romise": 5273, "Ġleave": 5274, "Ġstrateg": 5275, "aven": 5276, "ĠConsole": 5277, "known": 5278, "-n": 5279, "_LE": 5280, ".component": 5281, "Ġbre": 5282, "Session": 5283, "iance": 5284, "Ġalign": 5285, "typedef": 5286, "_result": 5287, "ĠWHERE": 5288, ".split": 5289, "Ġreading": 5290, "FAULT": 5291, "Ġclo": 5292, "Ġnotice": 5293, "_pr": 5294, "arter": 5295, "Ġlock": 5296, "Ġstandard": 5297, "etic": 5298, "ellow": 5299, "Ġpadding": 5300, "ĠHis": 5301, "Ġstates": 5302, "_cast": 5303, "(P": 5304, "aa": 5305, "Ġinternal": 5306, "ean": 5307, "ĠPRO": 5308, "ĠKey": 5309, "Ġespecially": 5310, "ming": 5311, "Ġcross": 5312, "Ġnational": 5313, "_object": 5314, "filter": 5315, "Ġscript": 5316, ".update": 5317, "_i": 5318, "ĠAssert": 5319, "/core": 5320, "%%%%": 5321, "Ġproblems": 5322, "istor": 5323, "Ġ.=": 5324, "Ġarch": 5325, "Ġwritten": 5326, "Ġmilit": 5327, "MENT": 5328, ".ch": 5329, "cape": 5330, "ĠMus": 5331, "_config": 5332, "ĠAPI": 5333, "foot": 5334, "Ġimages": 5335, "endl": 5336, ".In": 5337, "First": 5338, "Ġplatform": 5339, ".prot": 5340, "Option": 5341, "ste": 5342, "ĠTODO": 5343, "Ġforce": 5344, ".cont": 5345, "ĉecho": 5346, "ĠDav": 5347, "Ptr": 5348, "(B": 5349, "RT": 5350, "ĠBase": 5351, "]['": 5352, "Ġannounc": 5353, "console": 5354, "ĠPy": 5355, "ds": 5356, ".as": 5357, "Ġprevent": 5358, "apan": 5359, "Ġ{'": 5360, "}</": 5361, "ĠService": 5362, "ĠSen": 5363, "ador": 5364, "profile": 5365, "Top": 5366, "Ġiter": 5367, "po": 5368, "IES": 5369, "JSON": 5370, "IE": 5371, "iant": 5372, "ãĢģ": 5373, "_j": 5374, "ĠSept": 5375, "_map": 5376, "bum": 5377, "(context": 5378, "ĠHome": 5379, "ians": 5380, "GB": 5381, "Ġliving": 5382, "Ġpattern": 5383, "(input": 5384, "icient": 5385, "Core": 5386, "Ġentity": 5387, "Ġinteg": 5388, "Changed": 5389, "Ġuseful": 5390, ".info": 5391, "Ġtool": 5392, "(item": 5393, "Ġok": 5394, "Ġfeed": 5395, "IX": 5396, "Ã©s": 5397, "ĠNews": 5398, "remove": 5399, "erry": 5400, "ĉĉĉĉĉĉĉĉĉ": 5401, "ipment": 5402, "ares": 5403, "Do": 5404, "Current": 5405, ".content": 5406, ".Group": 5407, "ustral": 5408, "ĠÑģ": 5409, "})": 5410, "Ġpopular": 5411, "Ġstre": 5412, "Ġmethods": 5413, "_ERROR": 5414, "Left": 5415, "cal": 5416, "bsp": 5417, ".ToString": 5418, "Ġdir": 5419, "Ġallowed": 5420, "Ġimpact": 5421, "\")]Ċ": 5422, ".config": 5423, "Ġelements": 5424, "Ġprote": 5425, "Ġtrain": 5426, ".tr": 5427, "rs": 5428, "ĠRepublic": 5429, "ĠTask": 5430, "aries": 5431, "(D": 5432, "(get": 5433, "âĢ¦ĊĊ": 5434, "Ġrelated": 5435, "Ġvers": 5436, "Ġsil": 5437, "Ġ\"\";Ċ": 5438, "Ġcmd": 5439, "Ġtechnology": 5440, ".width": 5441, "Float": 5442, "ĠUse": 5443, "Body": 5444, "should": 5445, ".join": 5446, "Font": 5447, "llum": 5448, "ycle": 5449, "ĠBrit": 5450, "Ġmit": 5451, "Ġscale": 5452, "Ġ(_": 5453, "ernel": 5454, "\"))Ċ": 5455, "Ġscore": 5456, "/v": 5457, "Ġstudent": 5458, "UC": 5459, ".show": 5460, "Ġaverage": 5461, "Enabled": 5462, "(ex": 5463, "common": 5464, "imation": 5465, ":@\"": 5466, "chie": 5467, "Ġ...ĊĊ": 5468, "river": 5469, "ĠMarch": 5470, "category": 5471, "fin": 5472, "Ġcourt": 5473, "Ð²": 5474, "Server": 5475, "Ġcontainer": 5476, "-st": 5477, "_for": 5478, "Ġparts": 5479, "Ġdecision": 5480, "obs": 5481, "oub": 5482, "mitted": 5483, "Ġ$('#": 5484, "Ġsaw": 5485, "Ġapproach": 5486, "ICE": 5487, "Ġsaying": 5488, "Ġanyone": 5489, "meta": 5490, "SD": 5491, "Ġsong": 5492, "display": 5493, "Oper": 5494, "outes": 5495, "Ġchannel": 5496, "Ġchanged": 5497, "Ãª": 5498, "Ġfinally": 5499, "_number": 5500, "Please": 5501, "à¤": 5502, "oring": 5503, "-re": 5504, "Ġkill": 5505, "Ġdrug": 5506, "window": 5507, "Ġconvert": 5508, "ombre": 5509, "Ġways": 5510, "Helper": 5511, "ĠFirst": 5512, "(__": 5513, "urity": 5514, "ĠWindows": 5515, "ees": 5516, "Ġmat": 5517, "rapper": 5518, "Ġplus": 5519, "anges": 5520, "\"].": 5521, "azon": 5522, "/t": 5523, "lat": 5524, "aste": 5525, "Ġprofile": 5526, "Ġready": 5527, "#ifndef": 5528, "rote": 5529, "Ġsense": 5530, "Gener": 5531, "ĠConfig": 5532, "omy": 5533, "ĠJune": 5534, "Ġlatest": 5535, "Ġsaf": 5536, "Ġregion": 5537, "Ġdeep": 5538, "witch": 5539, "ĠPark": 5540, "}`": 5541, "ĠFrom": 5542, "II": 5543, "Ġcv": 5544, "Ġreach": 5545, "Ġcounter": 5546, "ĠWork": 5547, "ĠURL": 5548, "ĠUpdate": 5549, "',čĊ": 5550, "Ġimmedi": 5551, "close": 5552, "ados": 5553, "ferred": 5554, "Ġweeks": 5555, "urg": 5556, "Ġdamage": 5557, "Ġlost": 5558, "ani": 5559, "_lo": 5560, "Ġhimself": 5561, "Ġdog": 5562, ")]Ċ": 5563, "ï¿": 5564, "pir": 5565, "tt": 5566, "Ġpaper": 5567, "Ġthems": 5568, "second": 5569, "Ġstaff": 5570, "ĠInput": 5571, "\"+": 5572, "ĠFacebook": 5573, "Ġalloc": 5574, "Ġsched": 5575, "ACE": 5576, "Ġthemselves": 5577, "ĠComponent": 5578, "Ġdriver": 5579, "ja": 5580, "(path": 5581, "Ġcategory": 5582, "alls": 5583, "pu": 5584, "lluminate": 5585, "ĠAction": 5586, ".button": 5587, "ĠGL": 5588, "istics": 5589, "Ġoil": 5590, "Ġstock": 5591, ">'": 5592, "Ġdead": 5593, "VAL": 5594, "QUE": 5595, "************************************************************************": 5596, "Ġcharg": 5597, "Return": 5598, "Ġful": 5599, "dom": 5600, "Ġrules": 5601, "Ġmodify": 5602, "Ġeval": 5603, "ham": 5604, "atement": 5605, "\\<": 5606, "ula": 5607, "=False": 5608, "RA": 5609, "Ġcontains": 5610, "Ġstack": 5611, "mar": 5612, "Ġ{}Ċ": 5613, "Ġundefined": 5614, "Ass": 5615, "ĠChina": 5616, "vey": 5617, "*Ċ": 5618, "Ġplaying": 5619, ")/": 5620, "actor": 5621, "Ġbottom": 5622, "lier": 5623, "ĠNumber": 5624, "Ġcouple": 5625, "DC": 5626, "ĠSO": 5627, "gor": 5628, ".setText": 5629, "success": 5630, "command": 5631, "Filter": 5632, "ĠOur": 5633, "_item": 5634, "Ġctx": 5635, "Ġroad": 5636, "Version": 5637, "case": 5638, "urt": 5639, "avior": 5640, "ych": 5641, "sembly": 5642, "ĠProduct": 5643, "Ġheld": 5644, "afe": 5645, "Ġincludes": 5646, "<quote": 5647, "Ġavoid": 5648, "ĠFin": 5649, "ĠMod": 5650, "Ġtab": 5651, "ano": 5652, "Ã±": 5653, "ipping": 5654, "-e": 5655, "Ġinsert": 5656, "target": 5657, "chan": 5658, ".Model": 5659, "IME": 5660, "\\Ċ": 5661, "Ġmachine": 5662, "avy": 5663, "ĠNO": 5664, "ĠInter": 5665, "Ġoperation": 5666, "modal": 5667, "Tag": 5668, "]:": 5669, "Ġproduction": 5670, "Ġareas": 5671, "Ġren": 5672, "_from": 5673, "nbsp": 5674, "Ġoperator": 5675, "men": 5676, "apped": 5677, "_per": 5678, "zen": 5679, "(\".": 5680, ".save": 5681, "=\"{{": 5682, "Ġtor": 5683, "(response": 5684, "Ġcandid": 5685, "Ġconv": 5686, "ailed": 5687, "ĠLib": 5688, "comp": 5689, "ura": 5690, "ï¿½": 5691, "ĠHere": 5692, "Ġargument": 5693, "hood": 5694, "Ġestablish": 5695, "ography": 5696, "ĠonClick": 5697, "ambda": 5698, "Ġsch": 5699, "Ġmovie": 5700, "Ġsec": 5701, "Ġactivity": 5702, "Ø§": 5703, "Ġsql": 5704, "_all": 5705, "incip": 5706, "Ġprovides": 5707, "Ġsys": 5708, "acket": 5709, "Ġwasn": 5710, "Ġuses": 5711, "ĠFunction": 5712, ".google": 5713, "ĠResult": 5714, "Visible": 5715, "agma": 5716, "elcome": 5717, "ĠSy": 5718, "ĠCent": 5719, "ALSE": 5720, "aciÃ³n": 5721, "EXT": 5722, "Ġlicense": 5723, "ĠLong": 5724, "Ġaccom": 5725, "Ġability": 5726, ".height": 5727, "Active": 5728, "ological": 5729, "oly": 5730, ")),": 5731, ".Se": 5732, "Ġparameter": 5733, "prite": 5734, "ABILITY": 5735, ".service": 5736, "ĠGroup": 5737, "_query": 5738, "ĠItem": 5739, "ining": 5740, "Ġjud": 5741, "ims": 5742, "fix": 5743, "inder": 5744, "agram": 5745, "Ġfunctions": 5746, "Ġexperi": 5747, "ĠEm": 5748, "Ġrot": 5749, "Ġpen": 5750, ".btn": 5751, "ĠAS": 5752, "#ifdef": 5753, "Ġchoice": 5754, "ĠPage": 5755, "_PRO": 5756, "QU": 5757, "åı": 5758, "antity": 5759, "ÂŃ": 5760, "words": 5761, "Ġreadonly": 5762, "Ġflex": 5763, "protected": 5764, "ĠAny": 5765, "Ġcharacters": 5766, "enced": 5767, "ĠJuly": 5768, "iler": 5769, "Card": 5770, "urance": 5771, "Ġrev": 5772, ".event": 5773, "aly": 5774, "Ġwonder": 5775, "ĠPort": 5776, "Ġlegal": 5777, "role": 5778, "Ġten": 5779, "Ġgoes": 5780, "MP": 5781, "white": 5782, "):čĊ": 5783, "))čĊ": 5784, "Ġreference": 5785, "Ġmis": 5786, "ĠProject": 5787, "icks": 5788, ">&": 5789, "CON": 5790, "Ġrepl": 5791, "Ġregular": 5792, "Storage": 5793, "ramework": 5794, "Ġgoal": 5795, "Ġtouch": 5796, ".widget": 5797, "Ġbuilt": 5798, "des": 5799, "Part": 5800, "(re": 5801, "Ġworth": 5802, "hib": 5803, "game": 5804, "ĠÐ²": 5805, "acion": 5806, "ĠWhite": 5807, "(type": 5808, "(`": 5809, "Ġnatural": 5810, "Ġinj": 5811, "Ġcalcul": 5812, "ĠApril": 5813, ".List": 5814, "Ġassociated": 5815, "ĉSystem": 5816, "~~": 5817, "=[": 5818, "Ġstorage": 5819, "Ġbytes": 5820, "Ġtravel": 5821, "Ġsou": 5822, "Ġpassed": 5823, "!=": 5824, "ascript": 5825, ".open": 5826, "Ġgrid": 5827, "Ġbus": 5828, "Ġrecogn": 5829, "Ab": 5830, "Ġhon": 5831, "ĠCenter": 5832, "Ġprec": 5833, "build": 5834, "HTML": 5835, "ĠSan": 5836, "Ġcountries": 5837, "aled": 5838, "token": 5839, "kt": 5840, "Ġqual": 5841, "Last": 5842, "adow": 5843, "Ġmanufact": 5844, "idad": 5845, "jango": 5846, "Next": 5847, "xf": 5848, ".a": 5849, "Ġporno": 5850, "ĠPM": 5851, "erve": 5852, "iting": 5853, "_th": 5854, "ci": 5855, "=None": 5856, "gs": 5857, "Ġlogin": 5858, "atives": 5859, "']);Ċ": 5860, "Äħ": 5861, "Ġill": 5862, "IA": 5863, "children": 5864, "DO": 5865, "Ġlevels": 5866, "Ġ{{": 5867, "Ġlooks": 5868, "Ġ\"#": 5869, "ToString": 5870, "Ġnecessary": 5871, "ĠĠĠĊ": 5872, "cell": 5873, "Entry": 5874, "Ġ'#": 5875, "Ġextrem": 5876, "Selector": 5877, "Ġplaceholder": 5878, "Load": 5879, "Ġreleased": 5880, "ORE": 5881, "Enumer": 5882, "ĠTV": 5883, "SET": 5884, "inq": 5885, "Press": 5886, "ĠDepartment": 5887, "Ġproperties": 5888, "Ġrespond": 5889, "Search": 5890, "ael": 5891, "Ġrequ": 5892, "ĠBook": 5893, "/Ċ": 5894, "(st": 5895, "Ġfinancial": 5896, "icket": 5897, "_input": 5898, "Ġthreat": 5899, "(in": 5900, "Strip": 5901, "ìĿ": 5902, "Ã§Ã£o": 5903, "Ġevidence": 5904, "));": 5905, "ĠBro": 5906, "Ġ[];Ċ": 5907, "Ġou": 5908, "buf": 5909, "Script": 5910, "dat": 5911, "Ġrule": 5912, "#import": 5913, "=\"/": 5914, "Serial": 5915, "Ġstarting": 5916, "[index": 5917, "ae": 5918, "Ġcontrib": 5919, "session": 5920, "_new": 5921, "utable": 5922, "ober": 5923, "Ġ\"./": 5924, "Ġlogger": 5925, "Ġrecently": 5926, "Ġreturned": 5927, "ččĊ": 5928, ")))Ċ": 5929, "itions": 5930, "Ġseek": 5931, "Ġcommunic": 5932, "Ġ\".": 5933, "Ġusername": 5934, "ECT": 5935, "DS": 5936, "Ġotherwise": 5937, "ĠGerman": 5938, ".aw": 5939, "Adapter": 5940, "ixel": 5941, "Ġsystems": 5942, "Ġdrop": 5943, "Ġstructure": 5944, "Ġ$(\"#": 5945, "encies": 5946, "anning": 5947, "ĠLink": 5948, "ĠResponse": 5949, "Ġstri": 5950, "Å¼": 5951, "ĠDB": 5952, "æĹ": 5953, "android": 5954, "submit": 5955, "otion": 5956, "(@": 5957, ".test": 5958, "ĊĊĊĊĊĊĊĊ": 5959, "];čĊ": 5960, "Ġdirectly": 5961, "Ġ\"%": 5962, "ris": 5963, "elta": 5964, "AIL": 5965, "){čĊ": 5966, "mine": 5967, "ĠĠĠĠĠĠĠĠĠĠĠĠĠĠĠĠĠĠĠĠĠĠĠĠĠĠ": 5968, "(k": 5969, "bon": 5970, "asic": 5971, "pite": 5972, "___": 5973, "Max": 5974, "Ġerrors": 5975, "ĠWhile": 5976, "Ġarguments": 5977, "Ġensure": 5978, "Right": 5979, "-based": 5980, "Web": 5981, "Ġ-=": 5982, "Ġintrodu": 5983, "ĠInst": 5984, "ĠWash": 5985, "ordin": 5986, "join": 5987, "Database": 5988, "Ġgrad": 5989, "Ġusually": 5990, "ITE": 5991, "Props": 5992, "?>Ċ": 5993, "ĠGo": 5994, "@Override": 5995, "REF": 5996, "Ġip": 5997, "ĠAustral": 5998, "Ġist": 5999, "ViewById": 6000, "Ġserious": 6001, "Ġcustomer": 6002, ".prototype": 6003, "odo": 6004, "cor": 6005, "Ġdoor": 6006, "ĠWITHOUT": 6007, "Ġplant": 6008, "Ġbegan": 6009, "Ġdistance": 6010, "()).": 6011, "Ġchance": 6012, "Ġord": 6013, "came": 6014, "pragma": 6015, "Ġprotect": 6016, "ragment": 6017, "ĠNode": 6018, "ening": 6019, "Ñĩ": 6020, "Ġroute": 6021, "ĠSchool": 6022, "hi": 6023, "Ġneighb": 6024, "After": 6025, "licit": 6026, "Ġcontr": 6027, "Ġprimary": 6028, "AA": 6029, ".WriteLine": 6030, "utils": 6031, "Ġbi": 6032, "Red": 6033, ".Linq": 6034, ".object": 6035, "Ġleaders": 6036, "unities": 6037, "Ġgun": 6038, "onth": 6039, "ĠDev": 6040, "FILE": 6041, "Ġcomments": 6042, "_len": 6043, "arrow": 6044, "amount": 6045, "Range": 6046, "sert": 6047, "GridView": 6048, "Ġupdated": 6049, "ĠMo": 6050, "Ġinform": 6051, "ociety": 6052, "ala": 6053, "Access": 6054, "Ġhab": 6055, "Ġcreat": 6056, "_arg": 6057, "ĠJanuary": 6058, "ĠDay": 6059, "\")čĊ": 6060, "uple": 6061, "document": 6062, "gorith": 6063, "menu": 6064, "ĠOver": 6065, "bb": 6066, ".title": 6067, "_out": 6068, "Ġled": 6069, "uri": 6070, "Ġ?></": 6071, "gl": 6072, "Ġbank": 6073, "ayment": 6074, "ĉprintf": 6075, "MD": 6076, "Ġsample": 6077, "Ġhands": 6078, "ĠVersion": 6079, "uario": 6080, "Ġoffers": 6081, "ityEngine": 6082, "Ġshape": 6083, "Ġsleep": 6084, "_point": 6085, "Settings": 6086, "Ġachie": 6087, "Ġsold": 6088, "ota": 6089, ".bind": 6090, "Am": 6091, "Ġsafe": 6092, "Store": 6093, "Ġshared": 6094, "Ġpriv": 6095, "_VAL": 6096, "Ġsens": 6097, "){": 6098, "Ġremember": 6099, "shared": 6100, "element": 6101, "Ġshoot": 6102, "Vert": 6103, "cout": 6104, "Ġenv": 6105, "_label": 6106, "Ġ>Ċ": 6107, "run": 6108, "Ġscene": 6109, "(array": 6110, "device": 6111, "_title": 6112, "agon": 6113, "]čĊ": 6114, "aby": 6115, "Ġbecame": 6116, "boolean": 6117, "Ġpark": 6118, "ĠCode": 6119, "upload": 6120, "riday": 6121, "ĠSeptember": 6122, "Fe": 6123, "Ġsen": 6124, "cing": 6125, "FL": 6126, "Col": 6127, "uts": 6128, "_page": 6129, "inn": 6130, "Ġimplied": 6131, "aling": 6132, "Ġyourself": 6133, ".Count": 6134, "conf": 6135, "Ġaud": 6136, "_init": 6137, ".)": 6138, "Ġwrote": 6139, "NG": 6140, ".Error": 6141, "ä»": 6142, ".for": 6143, "Ġequal": 6144, "ĠRequest": 6145, "Ġserial": 6146, "Ġallows": 6147, "XX": 6148, "Ġmiddle": 6149, "chor": 6150, "Ã¸": 6151, "erval": 6152, ".Column": 6153, "reading": 6154, "Ġescort": 6155, "ĠAugust": 6156, "Ġquickly": 6157, "Ġweap": 6158, "ĠCG": 6159, "ropri": 6160, "ho": 6161, "Ġcop": 6162, "(struct": 6163, "ĠBig": 6164, "Ġvs": 6165, "Ġfrequ": 6166, ".Value": 6167, "Ġactions": 6168, "Ġproper": 6169, "Ġinn": 6170, "Ġobjects": 6171, "Ġmatrix": 6172, "avascript": 6173, "Ġones": 6174, ".group": 6175, "Ġgreen": 6176, "Ġpaint": 6177, "ools": 6178, "ycl": 6179, "encode": 6180, "olt": 6181, "comment": 6182, ".api": 6183, "Dir": 6184, "Ġune": 6185, "izont": 6186, ".position": 6187, "Ġdesigned": 6188, "_val": 6189, "avi": 6190, "iring": 6191, "tab": 6192, "Ġlayer": 6193, "Ġviews": 6194, "Ġreve": 6195, "rael": 6196, "ĠON": 6197, "rics": 6198, "np": 6199, "Ġcore": 6200, "());čĊ": 6201, "Main": 6202, "Ġexpert": 6203, "ĉĉčĊ": 6204, "_en": 6205, "Ġ/>": 6206, "utter": 6207, "IAL": 6208, "ails": 6209, "ĠKing": 6210, "*/ĊĊ": 6211, "ĠMet": 6212, "_end": 6213, "addr": 6214, "ora": 6215, "Ġir": 6216, "Min": 6217, "Ġsurpr": 6218, "Ġrepe": 6219, "Ġdirectory": 6220, "PUT": 6221, "-S": 6222, "Ġelection": 6223, "haps": 6224, ".pre": 6225, "cm": 6226, "Values": 6227, "Ġ\"Ċ": 6228, "column": 6229, "ivil": 6230, "Login": 6231, "inue": 6232, "Ġbeautiful": 6233, "Ġsecret": 6234, "(event": 6235, "Ġchat": 6236, "ums": 6237, "Ġorigin": 6238, "Ġeffects": 6239, "Ġmanagement": 6240, "illa": 6241, "tk": 6242, "Ġsetting": 6243, "ĠCour": 6244, "Ġmassage": 6245, "ĉend": 6246, "Ġhappy": 6247, "Ġfinish": 6248, "Ġcamera": 6249, "ĠVer": 6250, "ĠDemocr": 6251, "ĠHer": 6252, "(Q": 6253, "cons": 6254, "ita": 6255, "Ġ'.": 6256, "{}": 6257, "ĉC": 6258, "Ġstuff": 6259, "Ġ:Ċ": 6260, "ĠAR": 6261, "Task": 6262, "hidden": 6263, "eros": 6264, "IGN": 6265, "atio": 6266, "ĠHealth": 6267, "olute": 6268, "Enter": 6269, "'>": 6270, "ĠTwitter": 6271, "ĠCounty": 6272, "scribe": 6273, "Ġ=>Ċ": 6274, "Ġhy": 6275, "fit": 6276, "Ġmilitary": 6277, "Ġsale": 6278, "required": 6279, "non": 6280, "bootstrap": 6281, "hold": 6282, "rim": 6283, "-old": 6284, "ĠDown": 6285, "Ġmention": 6286, "contact": 6287, "_group": 6288, "oday": 6289, "Ġtown": 6290, "Ġsolution": 6291, "uate": 6292, "elling": 6293, "]->": 6294, "otes": 6295, "ental": 6296, "omen": 6297, "ospital": 6298, "ĠSup": 6299, "_EN": 6300, "Ġslow": 6301, "SESSION": 6302, "Ġblue": 6303, "ago": 6304, "Ġlives": 6305, "Ġ^": 6306, ".un": 6307, "inst": 6308, "enge": 6309, "Ġcustomers": 6310, "Ġcast": 6311, "udget": 6312, "ï¼ģ": 6313, "icens": 6314, "Ġdetermin": 6315, "Selected": 6316, "_pl": 6317, "ueue": 6318, "Ġdark": 6319, "//ĊĊ": 6320, "si": 6321, "thern": 6322, "ĠJapan": 6323, "/w": 6324, "PU": 6325, "ĠEast": 6326, "ovie": 6327, "Ġpackage": 6328, "Ġnor": 6329, "Ġapi": 6330, "bot": 6331, "\"];Ċ": 6332, "_post": 6333, "ulate": 6334, "Ġclub": 6335, "'));Ċ": 6336, "Ġloop": 6337, "PIO": 6338, "ione": 6339, "shot": 6340, "Initial": 6341, "Ġplayed": 6342, "register": 6343, "rought": 6344, "_max": 6345, "acement": 6346, "match": 6347, "raphics": 6348, "AST": 6349, "Ġexisting": 6350, "Ġcomplex": 6351, "DA": 6352, ".Ch": 6353, ".common": 6354, "mo": 6355, "Ġ'../../": 6356, "ito": 6357, "Ġanalysis": 6358, "Ġdeliver": 6359, "ĠĠĠĠĠĠĠĠĠĠĠĠĠĠĠĠĊ": 6360, "idx": 6361, "Ãł": 6362, "ongo": 6363, "ĠEnglish": 6364, "<!--": 6365, "Ġcomputer": 6366, "ENSE": 6367, "Ġpas": 6368, "Ġrais": 6369, "Hash": 6370, "Ġmobile": 6371, "Ġowner": 6372, "FIG": 6373, "ĠĠĠĠĠĠĠĠĠĠĠĠĠĠĠĠĠĠĠĠĠĠĠĠĠĠĠĠĠĠĠĠĠĠĠĠĠĠĠĠĠĠĠĠĠĠĠĠĠĠĠ": 6374, "thes": 6375, "Ġattr": 6376, "wd": 6377, ".time": 6378, "awn": 6379, "Ġtreatment": 6380, "ĠAc": 6381, ".View": 6382, "impl": 6383, "more": 6384, "pass": 6385, "Ġha": 6386, ".from": 6387, "Ġleading": 6388, "FFFF": 6389, "(error": 6390, ".ui": 6391, "atar": 6392, "aders": 6393, "dates": 6394, "Ġzu": 6395, "Ġflow": 6396, "Target": 6397, "Ġinvolved": 6398, "Ġio": 6399, "parse": 6400, "$_": 6401, "hest": 6402, ".int": 6403, "-item": 6404, "asy": 6405, "Sp": 6406, "Ġshift": 6407, "NT": 6408, "Ġtf": 6409, "_TR": 6410, ".web": 6411, "CS": 6412, "Ġ})": 6413, "Ġeyes": 6414, "_z": 6415, "');čĊ": 6416, "iforn": 6417, "Ġ{@": 6418, "Ġnice": 6419, ".list": 6420, "ĠĠĠĠčĊ": 6421, "Ġfloor": 6422, "Ġredirect": 6423, "ĠUK": 6424, "(['": 6425, "Ġwish": 6426, "Ġcapt": 6427, "legal": 6428, "ĠIO": 6429, "Ġstage": 6430, ".String": 6431, "ĠAfr": 6432, "igen": 6433, "ĠSH": 6434, "Delete": 6435, "ells": 6436, "Ġsolid": 6437, "Ġmeeting": 6438, "Ġworked": 6439, "Ġeditor": 6440, "iny": 6441, "Ð¼": 6442, "_read": 6443, ".Id": 6444, "eff": 6445, "Offset": 6446, "cha": 6447, "USER": 6448, "ĉĉĠĠĠ": 6449, "ipped": 6450, "Ġdict": 6451, "ĠRun": 6452, ".hpp": 6453, "Ġang": 6454, "xml": 6455, "imple": 6456, "Ġmedical": 6457, "_token": 6458, "connect": 6459, "Ġhour": 6460, "Ġcontroller": 6461, "_message": 6462, "UID": 6463, "Gr": 6464, "anded": 6465, "_CH": 6466, "Ġbooks": 6467, "Ġspeak": 6468, "aming": 6469, "Ġmount": 6470, "Record": 6471, "ĉstruct": 6472, ".Web": 6473, "ondon": 6474, "Ġ//Ċ": 6475, "Ġfelt": 6476, ".Auto": 6477, "idge": 6478, "_pos": 6479, "PR": 6480, "Ġmodern": 6481, "Collection": 6482, "_msg": 6483, "CD": 6484, "ĠLo": 6485, "Ġseconds": 6486, "ibly": 6487, ".equals": 6488, "Ġinternational": 6489, "#pragma": 6490, "ooth": 6491, "Writer": 6492, "iate": 6493, "Ġcele": 6494, "ĠBit": 6495, "ivo": 6496, "ivery": 6497, "rd": 6498, "HECK": 6499, "Ġcache": 6500, ".count": 6501, "Ġroll": 6502, ".Read": 6503, "RED": 6504, "Ġsetup": 6505, "izontal": 6506, "models": 6507, "argv": 6508, "Ġconsidered": 6509, "=\"../": 6510, "settings": 6511, "ĠRel": 6512, "Ġgrowth": 6513, "Ġmix": 6514, "ĠWashington": 6515, "Ġplt": 6516, "ĠIM": 6517, "áº": 6518, "Ġturned": 6519, "ĠDateTime": 6520, "ĠWed": 6521, "(url": 6522, "Ġ\"-": 6523, "Ġletter": 6524, "Async": 6525, "ĠĠĠĠĠĠĠĠĠĠĠĠĠĠĠĠĠĠĠĠĠĠĠĠĠĠĠĠ": 6526, "ĠOctober": 6527, "_line": 6528, "Ġattention": 6529, "Ġcollect": 6530, "ĠHash": 6531, "Ġimag": 6532, "Tree": 6533, "Ġsituation": 6534, "ette": 6535, "_no": 6536, "IVE": 6537, "Ġvon": 6538, ".target": 6539, "Ġknowledge": 6540, "Ġdrive": 6541, ".post": 6542, "Ġblood": 6543, "Ġcit": 6544, "primary": 6545, "Ġconfiguration": 6546, "tee": 6547, "Ġphoto": 6548, "isode": 6549, "Trace": 6550, "Ġgave": 6551, "Ġshot": 6552, "ĠAir": 6553, "Ġmother": 6554, "price": 6555, "Ġmorning": 6556, ")){Ċ": 6557, "-x": 6558, "Ġtrade": 6559, "Ġdesc": 6560, "Ġ&&Ċ": 6561, "Ġparents": 6562, "Api": 6563, "åĪ": 6564, "ted": 6565, "wer": 6566, "Ġæ": 6567, "Ġsy": 6568, "ĠKe": 6569, "Parser": 6570, "åħ": 6571, "ancy": 6572, "Ġpiece": 6573, "ifornia": 6574, "toString": 6575, "ran": 6576, "iding": 6577, "PTION": 6578, "comes": 6579, "/lic": 6580, ".client": 6581, "El": 6582, "Long": 6583, "Ġprofessional": 6584, "rupt": 6585, "va": 6586, "Ġcompletely": 6587, "Ġpractice": 6588, "Ġselection": 6589, "Rem": 6590, "ini": 6591, "Ġcam": 6592, "REE": 6593, "Ġsites": 6594, "pa": 6595, "ATUS": 6596, "ÑģÑĤ": 6597, "arrant": 6598, "*(": 6599, "_KEY": 6600, "ĠButton": 6601, "ĠFriday": 6602, "sequ": 6603, "Ġreader": 6604, "Ġmessages": 6605, "è¯": 6606, "Ġbuf": 6607, "Ke": 6608, "Ġnov": 6609, "HP": 6610, "Msg": 6611, "align": 6612, "arily": 6613, "Ġ',": 6614, "_with": 6615, "Ġdas": 6616, "Ġheard": 6617, "atomic": 6618, "rial": 6619, ")[": 6620, "Ġdise": 6621, "@end": 6622, "Ġgold": 6623, "Ġfair": 6624, "Ġsales": 6625, ".Button": 6626, "strict": 6627, "save": 6628, "Ġmeasure": 6629, "Ġ\"+": 6630, "ecause": 6631, "ViewController": 6632, "ĠTable": 6633, ".param": 6634, "Ġdecided": 6635, "(((": 6636, "INFO": 6637, "Ġopportunity": 6638, "Te": 6639, "ICENSE": 6640, "ccording": 6641, "ki": 6642, "ĠUN": 6643, "Ġcontain": 6644, "Ġmanager": 6645, "Ġpain": 6646, "ĠFire": 6647, "rome": 6648, "Ġplans": 6649, "Found": 6650, "lay": 6651, "ĠDecember": 6652, "Ġinflu": 6653, "Ãº": 6654, "rench": 6655, "ĠĠĠĠĠĠĠĠĠĠĠĠĠĠĠĠĠĠĠĠĠĠĠĠĠĠĠĠĠĠĠĠĠ": 6656, "azing": 6657, "brief": 6658, "call": 6659, "wood": 6660, "Ġloaded": 6661, "Ġgrand": 6662, "/f": 6663, "imp": 6664, "_U": 6665, "STR": 6666, "âĢ¢": 6667, "Ġcredit": 6668, ".Color": 6669, "orge": 6670, "QUEST": 6671, "Ġdifference": 6672, "ĠPC": 6673, "wargs": 6674, "Ġpub": 6675, "unday": 6676, "Ġfra": 6677, ".max": 6678, "Ġtried": 6679, "annels": 6680, "send": 6681, "Ġreports": 6682, "Ġadult": 6683, "äº": 6684, "Ġconsist": 6685, "ĠStreet": 6686, "ĠProgram": 6687, "SQL": 6688, "Matrix": 6689, "ouncil": 6690, "-A": 6691, "ĉw": 6692, "Ġwhose": 6693, "Ġrelig": 6694, "ĠSex": 6695, "Ġgives": 6696, "none": 6697, ".message": 6698, "(G": 6699, ".awt": 6700, "-right": 6701, "ĠNovember": 6702, "ellig": 6703, "utive": 6704, "Äĥ": 6705, "overn": 6706, "Ġeasily": 6707, "Ġideas": 6708, "ĠÐ½": 6709, "/css": 6710, "lying": 6711, "elle": 6712, "Can": 6713, "_color": 6714, "Ð¾Ð²": 6715, "Ġpair": 6716, "ngth": 6717, "Ġsplit": 6718, "drop": 6719, "arty": 6720, "ona": 6721, "Ġcapital": 6722, "Ġhear": 6723, "Ġexists": 6724, "ĉlog": 6725, "emo": 6726, "Run": 6727, "oi": 6728, "Ġparser": 6729, "ĠMethod": 6730, "Ġeducation": 6731, "[k": 6732, "Ġlibrary": 6733, ">\";Ċ": 6734, "_UN": 6735, "ĉstd": 6736, "oded": 6737, "Ġcalls": 6738, "here": 6739, "Rel": 6740, "Ġbrand": 6741, "background": 6742, "ga": 6743, "_address": 6744, "_params": 6745, "Category": 6746, "ĠIndia": 6747, "_event": 6748, "Ġing": 6749, "Render": 6750, ".cl": 6751, "umpy": 6752, "Ġpet": 6753, "FC": 6754, "ĠAnt": 6755, "Ext": 6756, "Ġcharge": 6757, "ened": 6758, "grad": 6759, "EO": 6760, "Ġdepend": 6761, "Ġ.ĊĊ": 6762, "frame": 6763, "Ġdf": 6764, "Ġhuge": 6765, "ĠPART": 6766, "eds": 6767, ";;": 6768, "ĠAM": 6769, "Ġbasic": 6770, "ĠLet": 6771, "lich": 6772, "Ġarm": 6773, "Ġstar": 6774, "Ġfederal": 6775, "Work": 6776, "Ġcarry": 6777, "ĠIsrael": 6778, "(obj": 6779, "={{": 6780, "Ġsaved": 6781, "Ġsyn": 6782, "Ġconstant": 6783, "VENT": 6784, "Ġpositive": 6785, "Ġconduct": 6786, "Ġskin": 6787, "Ġearlier": 6788, "Ġlayout": 6789, "ĠIP": 6790, "OUR": 6791, "Ġtim": 6792, "stylesheet": 6793, "_cl": 6794, "ĠCard": 6795, "++){Ċ": 6796, "Ġtemper": 6797, "ĠDavid": 6798, "ĉtry": 6799, ".dart": 6800, "Ġwants": 6801, "Ġpicture": 6802, "Ġvideos": 6803, "ĠComm": 6804, "isions": 6805, "_MAX": 6806, "Mapping": 6807, "-content": 6808, "ĠEar": 6809, "-de": 6810, "Ġprem": 6811, "bruary": 6812, "Ġcomponents": 6813, "Ġthroughout": 6814, "Ġpull": 6815, "Ġpages": 6816, "ente": 6817, "respond": 6818, "Ġgas": 6819, "criptor": 6820, "Ġedge": 6821, "Ġbound": 6822, "ACT": 6823, "******": 6824, "Ġcreating": 6825, "ĠCH": 6826, "Ġnullptr": 6827, "Br": 6828, "+'": 6829, ".co": 6830, ">::": 6831, "Ġlearning": 6832, ".Length": 6833, "_SH": 6834, "Ġpatients": 6835, "AIN": 6836, "Ġkids": 6837, "Ġcomfort": 6838, "Ġshown": 6839, "ugins": 6840, "ĠBack": 6841, "ella": 6842, "_CL": 6843, "Ġlat": 6844, "Ġdispatch": 6845, "Ġclasses": 6846, ".at": 6847, ".begin": 6848, "Ġsuccessful": 6849, "ban": 6850, "Ġobtain": 6851, "ĠSl": 6852, "Ġlack": 6853, "iterator": 6854, "Thread": 6855, "(size": 6856, "Ġnone": 6857, ".has": 6858, "_X": 6859, "sort": 6860, "nap": 6861, "pet": 6862, "bin": 6863, "ĠCanada": 6864, "They": 6865, "Ġdans": 6866, "ĠMat": 6867, "<td": 6868, "Ġhair": 6869, "Ġ'',Ċ": 6870, "Ġcu": 6871, "Ġlaws": 6872, "leted": 6873, "ped": 6874, "Ġpow": 6875, "Ġknew": 6876, "_COM": 6877, "_,": 6878, "ĠMag": 6879, "idents": 6880, "(req": 6881, "Ġ),": 6882, "-center": 6883, "Ġwide": 6884, "ĠAuthor": 6885, "stants": 6886, "Ġjobs": 6887, "Ġmath": 6888, "etimes": 6889, "Boolean": 6890, "Ġscope": 6891, "_is": 6892, "Ġmeas": 6893, "Ġkeys": 6894, "elay": 6895, "Ġexactly": 6896, "'=>'": 6897, "ĠPaul": 6898, "mas": 6899, "ĉprint": 6900, "(len": 6901, "fd": 6902, "Ġ);": 6903, ".Event": 6904, "qli": 6905, "irit": 6906, "ields": 6907, "oman": 6908, "ĠTop": 6909, "Ġvote": 6910, "Ġmask": 6911, "Ġtheme": 6912, "-Ċ": 6913, "Ġprops": 6914, "Ġfine": 6915, "Ġwriter": 6916, "_offset": 6917, "car": 6918, "Ġaltern": 6919, "Ġcopyright": 6920, "Ġdestroy": 6921, "pper": 6922, "Ġgenerate": 6923, "pped": 6924, "âĢĻd": 6925, "ĠĠĠĠĠĠĊ": 6926, "make": 6927, "ĠShow": 6928, "Ġbrowser": 6929, "Ġfavorite": 6930, "Ġcareer": 6931, "Ġhappened": 6932, "(char": 6933, "Ġrecommend": 6934, "Ġliter": 6935, ".filter": 6936, "grade": 6937, "ĠÂ£": 6938, "Phone": 6939, "oms": 6940, "Ġnamed": 6941, "-label": 6942, "ipo": 6943, "ĠOther": 6944, "Ġpanel": 6945, "Ġrock": 6946, "Scale": 6947, "ĉassert": 6948, "Ð´": 6949, "Ġtrust": 6950, "front": 6951, "Ġdemon": 6952, "Ar": 6953, "Net": 6954, "Ġeconomic": 6955, "footer": 6956, "Ġrace": 6957, "(node": 6958, "ĠOption": 6959, "split": 6960, "Ġphysical": 6961, "ifest": 6962, "Ġremoved": 6963, ".http": 6964, ")),Ċ": 6965, "Ġlooked": 6966, "';": 6967, "ding": 6968, "gest": 6969, "aturday": 6970, "/licenses": 6971, "Price": 6972, "Ġdro": 6973, "Ġtowards": 6974, "Ġuns": 6975, "ĠCL": 6976, "ĉstatic": 6977, "Ġrows": 6978, "Ġdefine": 6979, ".replace": 6980, "Ġfather": 6981, "ĠDesign": 6982, "assign": 6983, "mut": 6984, "Device": 6985, "Did": 6986, "'))Ċ": 6987, "ometry": 6988, "ayload": 6989, "Ġhistor": 6990, "ĠParam": 6991, "ĠBoolean": 6992, "Ġnature": 6993, "Ġjs": 6994, "Ġnation": 6995, "ih": 6996, "Ġdiscover": 6997, "sem": 6998, "Handle": 6999, "ĉr": 7000, "ĠTechn": 7001, "Ġwall": 7002, "{$": 7003, "@property": 7004, "Ġ\"../": 7005, "Ġexam": 7006, ".draw": 7007, "opping": 7008, "Ġnearly": 7009, "Ġcool": 7010, "Ġindepend": 7011, "RES": 7012, "Ġhandler": 7013, "ĠMonday": 7014, "Ġsun": 7015, "Styles": 7016, "ously": 7017, "Ġĉ": 7018, "vest": 7019, "Display": 7020, "(y": 7021, "atically": 7022, "Ġpredict": 7023, "ying": 7024, "Ġsometimes": 7025, "\"]Ċ": 7026, "Ġdrink": 7027, "Ġbul": 7028, "ifications": 7029, ".insert": 7030, ".reg": 7031, "Ġtests": 7032, "Alignment": 7033, "Ġalleg": 7034, "Ġattribute": 7035, "ĠNote": 7036, "Ġmyself": 7037, "arts": 7038, "Now": 7039, "Ġinteresting": 7040, "lients": 7041, "Ġpopulation": 7042, "ĠCalifornia": 7043, "\"I": 7044, "å¹": 7045, "Ġgreater": 7046, "uesday": 7047, "Ġthous": 7048, "Ġcosts": 7049, "Ġlaunch": 7050, "\\Http": 7051, "ker": 7052, "band": 7053, "ĠPlay": 7054, "Ġband": 7055, ".shape": 7056, "esome": 7057, "article": 7058, ".rf": 7059, "Ġwer": 7060, "Ã¡s": 7061, "embers": 7062, "usr": 7063, "BA": 7064, "ican": 7065, "ett": 7066, "validate": 7067, "ulti": 7068, "Ġimmediately": 7069, "zer": 7070, "Ġfigure": 7071, "oes": 7072, "eller": 7073, "ircle": 7074, "ĠSign": 7075, ".db": 7076, "Ġrank": 7077, "Bytes": 7078, "Ġprojects": 7079, "_rec": 7080, "ULAR": 7081, "API": 7082, "ĠLine": 7083, "Port": 7084, "Ġpoll": 7085, "Ġgiving": 7086, "idence": 7087, "--Ċ": 7088, "Ġplot": 7089, "icial": 7090, "Ġwarrant": 7091, "ITION": 7092, "ĠDouble": 7093, "Ġbillion": 7094, "gorithm": 7095, "Ġequipment": 7096, "DATE": 7097, "Ġ@\"": 7098, "EE": 7099, "Ġple": 7100, "iation": 7101, "Ġheaders": 7102, "Ġproced": 7103, ".ComponentModel": 7104, "ĠObama": 7105, "Ġpa": 7106, "ĠBest": 7107, "imately": 7108, ".getString": 7109, ".\\": 7110, "mploy": 7111, "Ġraw": 7112, "_block": 7113, "undred": 7114, "\"},Ċ": 7115, ".GroupLayout": 7116, "Ġbrought": 7117, "NSString": 7118, "throw": 7119, "created": 7120, ".New": 7121, "_view": 7122, "CP": 7123, "eps": 7124, "Op": 7125, "Ġgratis": 7126, "Ġ'\"": 7127, "Ġinterview": 7128, "\"\"\"Ċ": 7129, "Ġpartial": 7130, "Ġaria": 7131, "bing": 7132, "Author": 7133, "Book": 7134, "ĠPat": 7135, "uman": 7136, "Users": 7137, "plus": 7138, "ĠDirect": 7139, "venue": 7140, "alpha": 7141, "UCCESS": 7142, "ĠCall": 7143, "Ġ);čĊ": 7144, "imated": 7145, "Ġremain": 7146, "Ġanti": 7147, "ĠLondon": 7148, "Ġsafety": 7149, "POSE": 7150, "oles": 7151, "controller": 7152, "Byte": 7153, "ĠCourt": 7154, "ĠPhil": 7155, "ĠAssoci": 7156, "ena": 7157, "åĲ": 7158, "_STR": 7159, "coin": 7160, "reshold": 7161, "Ġbatch": 7162, "_Click": 7163, "entication": 7164, ">';Ċ": 7165, "enty": 7166, "Ġbeginning": 7167, "Ġzero": 7168, "ĠConvert": 7169, "Ġterr": 7170, "Ġpaid": 7171, "Ġincreased": 7172, "catch": 7173, "-size": 7174, "activity": 7175, "equals": 7176, "Ġqueue": 7177, "Ġ\"'": 7178, "ĠInternational": 7179, "ĠfÃ¼r": 7180, "ursday": 7181, "Ġscient": 7182, "allow": 7183, "axis": 7184, "Ġappropri": 7185, "edge": 7186, "Ġidx": 7187, "Success": 7188, "entifier": 7189, ":\\": 7190, "xis": 7191, "Ġmaximum": 7192, "arks": 7193, "Ġbirth": 7194, "(index": 7195, "Ġmaybe": 7196, ".py": 7197, "files": 7198, "Ġlimited": 7199, "_check": 7200, "look": 7201, "plies": 7202, "Ġmovement": 7203, "'].": 7204, "Ġbroad": 7205, "ĠBE": 7206, "ĠUnityEngine": 7207, ".cpp": 7208, "ĠEvery": 7209, "Admin": 7210, "Ġfans": 7211, "pared": 7212, "ĊĠĠĠĠĊ": 7213, "Ġforeign": 7214, "Ġpan": 7215, "Ġtour": 7216, "ĠOrder": 7217, "Ġmoving": 7218, "Ġauf": 7219, "Call": 7220, "cb": 7221, "ÅŁ": 7222, "ventory": 7223, "ĠSql": 7224, "Ġfully": 7225, "ClickListener": 7226, "WORD": 7227, "Ġannounced": 7228, ")čĊčĊ": 7229, "Ġagreed": 7230, "rie": 7231, "Ġearn": 7232, "_link": 7233, ".array": 7234, "(text": 7235, "Ġmaterials": 7236, ",p": 7237, "ffff": 7238, "vg": 7239, "ĠÂ©": 7240, "Ġunless": 7241, "ajax": 7242, "LOG": 7243, "Ġsexual": 7244, "Ġ\\\"": 7245, "-time": 7246, "Ġcoach": 7247, "Ġsupported": 7248, "Ġphotos": 7249, "iform": 7250, ".Create": 7251, ")]": 7252, "rier": 7253, "Ġdialog": 7254, "aver": 7255, "ige": 7256, ")+": 7257, "_idx": 7258, ":[": 7259, "_min": 7260, "ĠCong": 7261, "Ġpressure": 7262, "Ġteams": 7263, "Sign": 7264, "begin": 7265, "rian": 7266, "NESS": 7267, "LS": 7268, "Ġimprove": 7269, "ĠSunday": 7270, "Ġdefinition": 7271, "iger": 7272, "rollers": 7273, "Ġthinking": 7274, "Template": 7275, "-F": 7276, "Ġemerg": 7277, "plates": 7278, "ĠUSA": 7279, ".setState": 7280, "ĠAlso": 7281, "rev": 7282, "Ġenable": 7283, "ĠCO": 7284, "PECT": 7285, "Ġconcept": 7286, ")-": 7287, "ĠâĢ¢": 7288, "Ġsets": 7289, "Ġmeaning": 7290, "emon": 7291, "ĠCons": 7292, "cmp": 7293, "eder": 7294, "anned": 7295, "icensed": 7296, "ĠSuper": 7297, "Ġdaily": 7298, "Ġmulti": 7299, "_u": 7300, "Ġchalleng": 7301, "_mode": 7302, "ĠPromise": 7303, "Ġstrict": 7304, "jo": 7305, "inton": 7306, "(list": 7307, "Only": 7308, ">{": 7309, "Ġvehicle": 7310, "íķ": 7311, "ĠPlayer": 7312, "ĠDel": 7313, "Ġpool": 7314, ".url": 7315, "nesday": 7316, "();čĊčĊ": 7317, "Ġ\");Ċ": 7318, "Local": 7319, ".\");Ċ": 7320, "Ġorganization": 7321, "render": 7322, "ĠApplication": 7323, "Ġsummer": 7324, "expected": 7325, "NA": 7326, "Ġrap": 7327, "_obj": 7328, "Ġsurface": 7329, "ĠPUR": 7330, "Ġ},ĊĊ": 7331, "Ġvariables": 7332, "(message": 7333, "Ġopin": 7334, ".back": 7335, "Ð°Ð½": 7336, "Ġworkers": 7337, "vm": 7338, "Co": 7339, "ughter": 7340, "Ġmaster": 7341, "Ġ\"\",": 7342, "Ġstories": 7343, ".User": 7344, "Ġcelebr": 7345, "inese": 7346, "BS": 7347, "ĠCommand": 7348, "ashboard": 7349, "Ġog": 7350, "kg": 7351, ".image": 7352, ".style": 7353, "Ġsteps": 7354, "ĠBen": 7355, "(args": 7356, "ĠPerson": 7357, ",y": 7358, "Ġofficials": 7359, "|Ċ": 7360, "Ġskills": 7361, "vc": 7362, "Ġbuilder": 7363, "Ġgar": 7364, "Account": 7365, "ĠAuth": 7366, "çĶ": 7367, "'])Ċ": 7368, "ĠAT": 7369, "nn": 7370, ".Int": 7371, "SSERT": 7372, "Ġeffective": 7373, "LETE": 7374, "Ġtools": 7375, "ARD": 7376, "Ġdigital": 7377, "Double": 7378, "ĠFind": 7379, "RC": 7380, "Ġinline": 7381, "/r": 7382, "ARAM": 7383, "ASK": 7384, "Ġintent": 7385, "aight": 7386, "_addr": 7387, "Ġrequests": 7388, ".first": 7389, "Ġdebug": 7390, "Ġspent": 7391, "()));Ċ": 7392, "ÅĽ": 7393, "Ġprincip": 7394, "Logger": 7395, "cludes": 7396, ".use": 7397, "Ġsurv": 7398, "media": 7399, "ĠFebruary": 7400, "ĠMac": 7401, "Ġmissing": 7402, "Ġwife": 7403, "Ġtalking": 7404, "ĠMake": 7405, "Ġcart": 7406, "Ġlocated": 7407, "Enc": 7408, "-a": 7409, "chron": 7410, "Ġcards": 7411, "Ġguy": 7412, "Ġpers": 7413, "ĠYes": 7414, "atever": 7415, "ĠAng": 7416, "olar": 7417, "ĠEven": 7418, "Ġaccur": 7419, "ĠPower": 7420, "ĠGold": 7421, "clear": 7422, "Process": 7423, "Ġrecords": 7424, "Ġkilled": 7425, ".clear": 7426, "ĠWARRANTIES": 7427, "Ġpurpose": 7428, "panel": 7429, "JECT": 7430, "ÃŃa": 7431, "Ġexerc": 7432, "WS": 7433, "/L": 7434, ".exports": 7435, "Ġ___": 7436, "Ġsin": 7437, "Servlet": 7438, "ĠdÃ©": 7439, ".delete": 7440, "roke": 7441, "Sl": 7442, "ugh": 7443, "ears": 7444, "Ġpointer": 7445, "Ġhop": 7446, "allery": 7447, "Ġobs": 7448, "covery": 7449, "ĉchar": 7450, "ĉĉĉĉĉĉĉĉĉĉ": 7451, "ĉdef": 7452, "ocity": 7453, "itchen": 7454, "ulations": 7455, "ĠFIT": 7456, "Ġ).": 7457, "straints": 7458, "vention": 7459, "Ġrequires": 7460, "ĠOper": 7461, "ME": 7462, "OUNT": 7463, "allet": 7464, "Ġnorm": 7465, "IRE": 7466, "exas": 7467, "Ġprograms": 7468, "Ġweak": 7469, "'.$": 7470, "uing": 7471, "ĉĠĠĠĠĠĠĠ": 7472, "Ġmil": 7473, "Ġfirm": 7474, "initely": 7475, "_VALUE": 7476, "apse": 7477, "atisf": 7478, "Ġdemand": 7479, "_mod": 7480, "Ġdescribed": 7481, "Ġplaces": 7482, "VID": 7483, "Ġalone": 7484, "Ġexport": 7485, "Ġvec": 7486, "ĠMax": 7487, "Ġactivities": 7488, "ictures": 7489, "gener": 7490, "Ġma": 7491, "Ĥ¬": 7492, "Ġexpression": 7493, "Callback": 7494, "_content": 7495, "ĠMost": 7496, "Ġtesting": 7497, "EC": 7498, "CHANT": 7499, "Ġadjust": 7500, ".Threading": 7501, "(ctx": 7502, "Ġagree": 7503, "ighest": 7504, "Ġui": 7505, "ĠLaw": 7506, ".Y": 7507, "><?": 7508, "Ġpod": 7509, "-lg": 7510, "âĢĿĊĊ": 7511, "Ġdescribe": 7512, "ĠEuropean": 7513, "-sh": 7514, "ĠPURPOSE": 7515, "ORY": 7516, "Ġconvers": 7517, "ĠIlluminate": 7518, "ĠAv": 7519, "(ch": 7520, "?\"": 7521, "chen": 7522, "ima": 7523, "Document": 7524, "Ġoperations": 7525, "win": 7526, "ĉfunction": 7527, ".Image": 7528, "Ġscen": 7529, "/h": 7530, "ĠSC": 7531, "Ġexplo": 7532, ":%": 7533, "/**čĊ": 7534, "NAME": 7535, "æĪ": 7536, "(var": 7537, "Ġdirector": 7538, "ONG": 7539, "Ġyield": 7540, "Ġfeet": 7541, "ĠSearch": 7542, "ĠIl": 7543, "Ġrestaur": 7544, "duc": 7545, "Ġinteger": 7546, "Ġ'';Ċ": 7547, "Ġhighly": 7548, "checked": 7549, "ĠPARTIC": 7550, "ERCHANT": 7551, "ï¼ī": 7552, "Ġoptim": 7553, "Queue": 7554, "ĠLI": 7555, "itation": 7556, "Ġtransport": 7557, "ission": 7558, "fill": 7559, "usion": 7560, "ĠĠĠĠĠĠĠĠĠĠĠĠĠĠĠĠĠĠĠĠĠĠĠĠĠĠĠĠĠĠ": 7561, "ĉbool": 7562, "-th": 7563, "upt": 7564, "Ġessential": 7565, "anted": 7566, "Ġbenefits": 7567, "ĉS": 7568, "';čĊ": 7569, "iki": 7570, "Ġgirls": 7571, "iced": 7572, "buffer": 7573, "]+": 7574, "Ġsocket": 7575, "Ġprices": 7576, "ĠFre": 7577, "Ġsat": 7578, "Ġwood": 7579, "MenuItem": 7580, "ARG": 7581, "ĠAdmin": 7582, "OWN": 7583, "dk": 7584, "Ġreset": 7585, "Ġforms": 7586, "ĠÐ¸": 7587, "æĸ": 7588, "ĠTuesday": 7589, "ĠInitialized": 7590, "_train": 7591, "orary": 7592, "ategor": 7593, "Ġdt": 7594, "Total": 7595, "construct": 7596, "ilies": 7597, "Ġguys": 7598, "ÐµÑĢ": 7599, "Ġinstruction": 7600, "yled": 7601, "Ġinternet": 7602, "etadata": 7603, "ady": 7604, "faces": 7605, "jection": 7606, "ĠJack": 7607, "Ġrect": 7608, "[-": 7609, "ĠLeg": 7610, "Ġdevices": 7611, "OC": 7612, "Ġ*čĊ": 7613, "oration": 7614, "ertain": 7615, "Ġguard": 7616, "ostream": 7617, "Ġenum": 7618, ".layout": 7619, "Ġ\";Ċ": 7620, "voke": 7621, "ĠOk": 7622, "Home": 7623, "(tr": 7624, "ETH": 7625, "Ġdelay": 7626, "Ġpurchase": 7627, "dc": 7628, "Ġaren": 7629, "_once": 7630, "ĉĉĉĉĊ": 7631, "ror": 7632, "draw": 7633, ".run": 7634, "(model": 7635, "Timeout": 7636, "lik": 7637, "ĠArg": 7638, ".en": 7639, "Ġfish": 7640, "cpy": 7641, "_fe": 7642, "ERCHANTABILITY": 7643, "(X": 7644, "_output": 7645, "??": 7646, "Ġjo": 7647, "andard": 7648, "Ġdoll": 7649, "errors": 7650, "_base": 7651, "ĠPARTICULAR": 7652, "Ġleader": 7653, "Ġcompar": 7654, "Ġdoub": 7655, "ĠVis": 7656, "StackTrace": 7657, "-C": 7658, "ĠStud": 7659, "stitute": 7660, "More": 7661, "ĠDescription": 7662, "WARE": 7663, "ads": 7664, "ĠÐº": 7665, "bind": 7666, "=self": 7667, "employ": 7668, "[n": 7669, ".all": 7670, "-B": 7671, "&&": 7672, "alm": 7673, "Ġculture": 7674, "house": 7675, "Ġsuffer": 7676, "Ġ'%": 7677, "Ġstraight": 7678, "ĠStar": 7679, "udo": 7680, "Ġded": 7681, "ĠCOM": 7682, "Ġconfirm": 7683, "ĠGood": 7684, ".sc": 7685, "________________": 7686, "DR": 7687, "Configuration": 7688, "DateTime": 7689, "Ġadvert": 7690, "Ġcouldn": 7691, "async": 7692, "stack": 7693, "')čĊ": 7694, "Kit": 7695, "Ġhous": 7696, "Ġmechan": 7697, "rate": 7698, "Ġaudio": 7699, "ĉcout": 7700, "cores": 7701, "Ġspot": 7702, "Ġincreasing": 7703, "Ġ##": 7704, ")))": 7705, "points": 7706, "Ġcompared": 7707, "lig": 7708, "Ġbehavior": 7709, "ĠBY": 7710, "ĠAtt": 7711, "craft": 7712, "headers": 7713, "ete": 7714, "endregion": 7715, "Ġdetail": 7716, "ULE": 7717, "ĠCommon": 7718, "ĉprotected": 7719, "ston": 7720, "ĠFITNESS": 7721, "Ġfresh": 7722, "\">ĊĊ": 7723, ".example": 7724, "berg": 7725, "Ġmoved": 7726, "ĉe": 7727, "ĠSaturday": 7728, "Ġpayload": 7729, "Äĩ": 7730, "):ĊĊ": 7731, "Ġbey": 7732, "urer": 7733, "<script": 7734, "Ġsymbol": 7735, "Ġassum": 7736, "Ġpul": 7737, "Effect": 7738, "Ġhundred": 7739, "Tool": 7740, "aked": 7741, "connection": 7742, "Ġvoice": 7743, "Ġpd": 7744, "Ġtransaction": 7745, "Ġlinks": 7746, "Err": 7747, "ĠIndian": 7748, "TC": 7749, "atalog": 7750, "ni": 7751, "sign": 7752, "<<\"": 7753, "ji": 7754, "ya": 7755, "Ġdemonstr": 7756, "ulated": 7757, ".St": 7758, "Ġinstit": 7759, "Ġboost": 7760, "Ġcells": 7761, "olic": 7762, ".Pro": 7763, ":</": 7764, "EventListener": 7765, "ifying": 7766, "ĠDi": 7767, "orrow": 7768, ".execute": 7769, "Ġcollege": 7770, "Your": 7771, "Ġlargest": 7772, ".dis": 7773, "Ġqui": 7774, "Ġindividuals": 7775, "_buffer": 7776, "Ġng": 7777, "SA": 7778, "ĠControl": 7779, "Ġsing": 7780, "Ġsuit": 7781, "ĠĠĠĠĉ": 7782, "SG": 7783, "Ġjump": 7784, "Ġsmart": 7785, "oma": 7786, "ĠExp": 7787, "Ġ'-": 7788, "Ġassist": 7789, "Ġsuccessfully": 7790, "sys": 7791, "ĠCre": 7792, "_ref": 7793, "ĠThursday": 7794, "Ġbur": 7795, "ĠÐ´": 7796, "Ġbeyond": 7797, "Ġnodes": 7798, "Details": 7799, "inct": 7800, "ĠJames": 7801, "Ġaffect": 7802, "exception": 7803, "Ġtypeof": 7804, "(čĊ": 7805, "-se": 7806, "Ġfetch": 7807, "`,": 7808, "Ġcrusher": 7809, "}.": 7810, "ĠBO": 7811, "Show": 7812, "Ġrates": 7813, "Ġbon": 7814, "-icon": 7815, "ĠMedia": 7816, "RESS": 7817, "ĠValid": 7818, "Ð¾Ð»": 7819, "Ġfuck": 7820, "acks": 7821, "Ġstudies": 7822, "Me": 7823, "Ġowners": 7824, "}else": 7825, "Ġgrowing": 7826, "Variable": 7827, "ĠBel": 7828, ".random": 7829, "vement": 7830, "onym": 7831, "(F": 7832, "ĠFALSE": 7833, "Ġtorch": 7834, "(row": 7835, "igo": 7836, "structure": 7837, "Ġcertainly": 7838, "Dep": 7839, "ĠGreen": 7840, "question": 7841, "Ġadding": 7842, "ĠDevelop": 7843, "_def": 7844, "Ġmach": 7845, "=%": 7846, "ĉĉĠ": 7847, "conds": 7848, "Project": 7849, "Ġreject": 7850, "ĠÎ": 7851, "Ġpoor": 7852, "Ġaware": 7853, "ĠBuild": 7854, "ĠBritish": 7855, "ĠNE": 7856, "Ġnumer": 7857, "rees": 7858, "claim": 7859, "Ġmock": 7860, "Ġom": 7861, "Ġscre": 7862, "OLD": 7863, ".pl": 7864, "eler": 7865, "Ġcorrespond": 7866, "_HE": 7867, "Ġbinary": 7868, "_order": 7869, "ĠSQL": 7870, "Ġadvant": 7871, "Ġprev": 7872, ".[": 7873, ".assertEqual": 7874, "plier": 7875, "arp": 7876, "Ġclosed": 7877, "Ġencour": 7878, "ĠQString": 7879, "aud": 7880, "Ġdeveloped": 7881, "Ġpermission": 7882, ".debug": 7883, "operator": 7884, "Ġ'Ċ": 7885, "Ġsym": 7886, "atively": 7887, "Ã©e": 7888, "-color": 7889, "ĠGET": 7890, "ky": 7891, "Ġalthough": 7892, "_request": 7893, "_element": 7894, "................": 7895, "_DATA": 7896, "Ġamazing": 7897, "Ġsb": 7898, "ĠDefault": 7899, "Events": 7900, "Ġfailure": 7901, "acle": 7902, "Properties": 7903, "Ġdream": 7904, "Ġdistr": 7905, "Ġau": 7906, "Ġgenerated": 7907, "æķ": 7908, "ĠTeam": 7909, "USE": 7910, "Ġincome": 7911, "Ġeye": 7912, "_not": 7913, "\"],": 7914, "_form": 7915, "Support": 7916, "orders": 7917, ".Print": 7918, "ville": 7919, "ĠWednesday": 7920, "olver": 7921, "Ġoppos": 7922, "isation": 7923, "ola": 7924, "Close": 7925, "<p": 7926, "_width": 7927, "Invalid": 7928, "xb": 7929, "Ġstrugg": 7930, "_action": 7931, "Ġtxt": 7932, "ĠPath": 7933, "alar": 7934, "ĠMERCHANTABILITY": 7935, "service": 7936, "ĠMichael": 7937, "ableView": 7938, "Debug": 7939, "okes": 7940, "She": 7941, "Ġguess": 7942, "ĠJava": 7943, "_PATH": 7944, "Ġparticularly": 7945, "ĠII": 7946, "Ġdomain": 7947, "Ġreduce": 7948, "-left": 7949, "real": 7950, "Ġappears": 7951, "Ġcomo": 7952, "ĠUnit": 7953, "ĠGovern": 7954, "ali": 7955, "allel": 7956, "ĠJew": 7957, "_I": 7958, "Ġcos": 7959, ".color": 7960, "ĠGlobal": 7961, "Ġtele": 7962, "ben": 7963, "_trans": 7964, "Ġreasons": 7965, "Ġemb": 7966, "ensity": 7967, "lines": 7968, "omin": 7969, "Screen": 7970, "Ð°ÑĤ": 7971, "pects": 7972, "clip": 7973, "foo": 7974, "rent": 7975, "Ġaf": 7976, "Ġdanger": 7977, "iling": 7978, "Names": 7979, "Our": 7980, "Ġdistribution": 7981, "While": 7982, "SL": 7983, "Write": 7984, "Ġgoto": 7985, "Ġcolors": 7986, "Ġpowerful": 7987, "kin": 7988, "Ġdepth": 7989, "ercial": 7990, "ĠCongress": 7991, "ĠMarket": 7992, "Db": 7993, "under": 7994, "ĠLast": 7995, "ÃŁ": 7996, "greg": 7997, "Ġposts": 7998, "_URL": 7999, "otos": 8000, "Don": 8001, "Ġmicro": 8002, "Ġarrest": 8003, "Ð¿": 8004, "Ġ(@": 8005, "ĠHot": 8006, "ĠIndex": 8007, ";&": 8008, "#!": 8009, "ĠNor": 8010, "ĠCap": 8011, "-(": 8012, "Ġinterested": 8013, "pear": 8014, "Ġrent": 8015, "Ġalbum": 8016, "olicy": 8017, ".lang": 8018, ".trans": 8019, ".format": 8020, "Ġ{čĊčĊ": 8021, "phere": 8022, "Ġaxis": 8023, "ĠBusiness": 8024, "ersistence": 8025, "urr": 8026, "Ġminimum": 8027, "endor": 8028, "ĠSD": 8029, "ĠInternet": 8030, "å¤": 8031, "Exp": 8032, "iverse": 8033, "MM": 8034, "Ġobvious": 8035, "Ġbasis": 8036, "Ġscience": 8037, "Ġbudget": 8038, "izations": 8039, "PA": 8040, "Ġflags": 8041, "pret": 8042, "LOCK": 8043, "Ġvariety": 8044, "Ġtruth": 8045, "dt": 8046, "Ġgone": 8047, "Ġbattle": 8048, "<std": 8049, "ĠSil": 8050, "rf": 8051, "uda": 8052, "Ġerot": 8053, "ĠCam": 8054, "Ġstation": 8055, "Ġ'</": 8056, "cheme": 8057, "ĠSun": 8058, "Ġfinished": 8059, "Ġshop": 8060, "ĠKore": 8061, "Ġeight": 8062, "_REG": 8063, "ND": 8064, ">,": 8065, "\"><?": 8066, "(num": 8067, "ĉinline": 8068, "Transaction": 8069, ".On": 8070, "Ġmail": 8071, "rey": 8072, "results": 8073, "Ġnav": 8074, "IMIT": 8075, "_ids": 8076, "Make": 8077, "åĬ": 8078, "Modal": 8079, "ĠLOG": 8080, "ĠSur": 8081, "Ġinstanceof": 8082, "Ġoverall": 8083, "ĠInformation": 8084, "Ġconstruction": 8085, "_FILE": 8086, "but": 8087, "Ġmedic": 8088, "Ġduration": 8089, "itness": 8090, "agent": 8091, "AV": 8092, "Ġseven": 8093, "olf": 8094, "Ġ}}Ċ": 8095, "\"],Ċ": 8096, "Ġcalling": 8097, "Ġans": 8098, "throws": 8099, "orizontal": 8100, "ĠuseState": 8101, ".fl": 8102, "ĠStatus": 8103, "ĠOnline": 8104, "RR": 8105, "ĠRich": 8106, "ĠHill": 8107, "Ġbrain": 8108, "Ġfollowed": 8109, "emic": 8110, "Ġslight": 8111, "Ġinsurance": 8112, ".Array": 8113, "Ġabstract": 8114, "ĠSum": 8115, "redirect": 8116, "owner": 8117, "(msg": 8118, "ĠClinton": 8119, "Non": 8120, "ĉex": 8121, "Ġvolume": 8122, "ĠEventArgs": 8123, "-L": 8124, "ĠDim": 8125, "ĠMart": 8126, "Ġcursor": 8127, "Ġimplementation": 8128, "urred": 8129, "Ġlarger": 8130, ");ĊĊĊ": 8131, "'+": 8132, ".transform": 8133, "Ġupload": 8134, "ĠĠĠĠĠĠĠĠĠĠĠĠĠĠĠĠĠĠĠĠĠĠĠĠĠĠĠĠĠĠĠĠĠĠĠĠĠĠĠĠĠĠĠĠĠĠĠĠĠĠĠĠĠĠĠ": 8135, "Draw": 8136, "nel": 8137, "ĉfloat": 8138, "qrt": 8139, "ĠNetwork": 8140, "Ġtit": 8141, "Axis": 8142, ".android": 8143, "Ġcompleted": 8144, "Ġmur": 8145, "Ġcolumns": 8146, "xc": 8147, "Ġsupply": 8148, "iminal": 8149, "Ġspr": 8150, "================================================================": 8151, "Ġunits": 8152, "(u": 8153, "mi": 8154, "replace": 8155, "[key": 8156, "à¹": 8157, "antic": 8158, "Ġpayment": 8159, ",B": 8160, "ĠApple": 8161, "gin": 8162, "Required": 8163, "#+": 8164, "lands": 8165, "Ġsqu": 8166, "Ġfactor": 8167, "dec": 8168, "Ġstrength": 8169, "Ġboy": 8170, "Ġbalance": 8171, "Ġsources": 8172, "screen": 8173, "-top": 8174, "ĠAmazon": 8175, "Ġhidden": 8176, "ÐµÑĤ": 8177, "_client": 8178, "Ġeat": 8179, ".display": 8180, "ĠÂ»": 8181, "Ġtrigger": 8182, "anager": 8183, "Ġtro": 8184, "Ġclaims": 8185, "ford": 8186, "ĠCompany": 8187, "Ġgift": 8188, ",:": 8189, "_app": 8190, "handle": 8191, "Ġproduce": 8192, "/lib": 8193, "Ġ-*": 8194, "ĉset": 8195, "'];": 8196, "arc": 8197, "ander": 8198, "ĠEngine": 8199, "Ġattributes": 8200, "task": 8201, "<=": 8202, "(N": 8203, "Ġwarm": 8204, "which": 8205, "ĠFore": 8206, "agnost": 8207, "mys": 8208, "Ġtal": 8209, "ĠSal": 8210, "gi": 8211, "ĠPrint": 8212, "ĠTRUE": 8213, "ĠÐ¾": 8214, ".UI": 8215, "Ġflash": 8216, "roperty": 8217, ".location": 8218, "ĠMill": 8219, "bi": 8220, "contr": 8221, ".request": 8222, "ĠSam": 8223, "Ġnegative": 8224, "kit": 8225, "Ġsett": 8226, ".printStackTrace": 8227, "abe": 8228, "ĉi": 8229, "Ġburn": 8230, "Ġsociety": 8231, "Cache": 8232, "ĠSecurity": 8233, ".models": 8234, "ĠWARRANTY": 8235, "_up": 8236, "ceive": 8237, "Ġclients": 8238, ".Tr": 8239, "Ġproviding": 8240, "Ġrout": 8241, "material": 8242, "Ġ||Ċ": 8243, "ĠSer": 8244, "ĠOffice": 8245, "FTWARE": 8246, "Ġ'$": 8247, "Ġfoc": 8248, "Ġexcell": 8249, "Ġcat": 8250, "normal": 8251, "Ġdetermine": 8252, "ĉuint": 8253, "Pane": 8254, "Ġemployees": 8255, "ĠTexas": 8256, "Ġtraff": 8257, "ĠReport": 8258, "anta": 8259, "ĠBox": 8260, "Ġdjango": 8261, "Ġpartner": 8262, "EB": 8263, "LINE": 8264, "Ġfeeling": 8265, "Ġcivil": 8266, "(float": 8267, "Sql": 8268, "Ġwouldn": 8269, ".init": 8270, ".left": 8271, "-v": 8272, "_level": 8273, "'}": 8274, "AF": 8275, "Ġloading": 8276, "ĠOnly": 8277, "Ġcookies": 8278, "ĠGl": 8279, "CO": 8280, "Ġstrategy": 8281, "('./": 8282, "Ġship": 8283, "poses": 8284, "Ġsignal": 8285, "Ġalpha": 8286, ".pop": 8287, "Radius": 8288, "Ġreplace": 8289, "_DIR": 8290, "counter": 8291, "bservable": 8292, "ela": 8293, "Weight": 8294, "hash": 8295, "bose": 8296, "fx": 8297, "ĠEmail": 8298, "Ġrefer": 8299, "localhost": 8300, "_RO": 8301, "iques": 8302, "Step": 8303, "Ġahead": 8304, "(View": 8305, "ĠServices": 8306, "ĠJson": 8307, "essor": 8308, "Ġpun": 8309, "Ġappropriate": 8310, "akers": 8311, "osen": 8312, "posing": 8313, "Ġagent": 8314, "fc": 8315, "Ġtransfer": 8316, "Ġinvalid": 8317, "ĠResearch": 8318, "Vertex": 8319, "Ġgay": 8320, "Ġjournal": 8321, "[x": 8322, "Ġ\"\",Ċ": 8323, "ĠWell": 8324, ".Tasks": 8325, "Spec": 8326, "Ġol": 8327, "Ġspend": 8328, "ĠAustralia": 8329, "Match": 8330, ".junit": 8331, "ĠĠĠĠĠĠĠĠĠĠĠĠĠĠĠĠĠĠĠĠĠĠĠĠĠĠĠĠĠĠĠĠĠĠĠĠĠ": 8332, "ĠMAX": 8333, "izable": 8334, "clusive": 8335, "_valid": 8336, "Ġquarter": 8337, "yan": 8338, "ĠEdit": 8339, "arden": 8340, "=new": 8341, "Ġfrag": 8342, "Bit": 8343, "zi": 8344, "aine": 8345, "udd": 8346, ".Object": 8347, "debug": 8348, "Ġcash": 8349, "_IM": 8350, "Ġeen": 8351, "Ġcommercial": 8352, "ĠVideo": 8353, "loader": 8354, "Ġfixed": 8355, "Ġapplications": 8356, "Ġ_,": 8357, "ĠRussia": 8358, "itect": 8359, "_(": 8360, "ĠBlock": 8361, "Ġsan": 8362, "ĠTom": 8363, "Ġperhaps": 8364, "Ġsig": 8365, "levant": 8366, "Ġcorpor": 8367, "ataset": 8368, "ronic": 8369, "xe": 8370, "Ġeth": 8371, "Some": 8372, "pop": 8373, "_OK": 8374, "Ġtend": 8375, ".Res": 8376, "_and": 8377, "Ġreviews": 8378, "Ġwild": 8379, "Ġdegree": 8380, ".O": 8381, ".objects": 8382, "_args": 8383, "nil": 8384, "Ġdisabled": 8385, "Parent": 8386, "Ġnotes": 8387, "Ġ\"\"Ċ": 8388, "(state": 8389, "istrict": 8390, "Ġlogging": 8391, ".IO": 8392, "ĠMal": 8393, "DM": 8394, "Ġxml": 8395, "ĠRobert": 8396, "elen": 8397, "layout": 8398, "fol": 8399, "']))": 8400, ",b": 8401, "ĠJer": 8402, "filename": 8403, "Ġfan": 8404, "ĠCustom": 8405, "=\"\"": 8406, "ĠDie": 8407, "Bundle": 8408, ".utils": 8409, "Ġtrip": 8410, "MB": 8411, "Ġsoft": 8412, "_MODE": 8413, "Ġapplicable": 8414, "Ġupper": 8415, "ERVER": 8416, "_al": 8417, "_LOG": 8418, "Here": 8419, "wp": 8420, "ĠServer": 8421, "ĠClient": 8422, "Ġchem": 8423, "Scroll": 8424, "Ġhighest": 8425, "ĠSelect": 8426, "Ġ\"@": 8427, "ĠWhy": 8428, "Sec": 8429, "heel": 8430, "Operation": 8431, "Ġconnected": 8432, "irmed": 8433, "Ġcitiz": 8434, "ĠChe": 8435, "Ġforces": 8436, "Ġwww": 8437, "Root": 8438, "ANCE": 8439, "Many": 8440, "icip": 8441, "rgan": 8442, "ĠTor": 8443, "ĠPress": 8444, "ĠMor": 8445, "-line": 8446, "uled": 8447, ">\\": 8448, "Ġthus": 8449, "ĠRegister": 8450, "hol": 8451, "ĠChinese": 8452, "Ġposted": 8453, "Ġmagn": 8454, "abilities": 8455, "Ġdisease": 8456, "Ġremains": 8457, "ĠProf": 8458, "-form": 8459, "Ġcin": 8460, "organ": 8461, "icate": 8462, "Ġstress": 8463, "]*": 8464, "Ġ----------------------------------------------------------------": 8465, "_context": 8466, "orry": 8467, "Ġdied": 8468, "mat": 8469, "Ġstarts": 8470, ".Message": 8471, "Ġruns": 8472, "Ġguide": 8473, "Ġwarranty": 8474, "entials": 8475, "dict": 8476, "ĠSize": 8477, "uler": 8478, "Ġresponsible": 8479, "_SET": 8480, "Ġcontaining": 8481, "ĠPrice": 8482, "||": 8483, "FS": 8484, "Ġemp": 8485, "_button": 8486, "(uint": 8487, "Ġsuff": 8488, "pth": 8489, "Ġdefinitely": 8490, "pute": 8491, "Ġmarketing": 8492, "ĠWH": 8493, "ĠSie": 8494, "+=": 8495, "OLOR": 8496, "Ġconsult": 8497, "Ġsigned": 8498, "Ġsequence": 8499, "lee": 8500, "Ġrequirements": 8501, "hy": 8502, "Express": 8503, "MT": 8504, "sey": 8505, "Ġult": 8506, "å®": 8507, "elligence": 8508, "Ġanaly": 8509, "Ġdress": 8510, "engine": 8511, "ĠGreat": 8512, "ĠAndroid": 8513, "ĠAlex": 8514, "mode": 8515, "Dictionary": 8516, ".Date": 8517, "ä½": 8518, "VICE": 8519, "Ġfamilies": 8520, "ĠRussian": 8521, "ĠTimes": 8522, ".call": 8523, "$(": 8524, "Profile": 8525, "Ġfolder": 8526, "ches": 8527, "Ġlegis": 8528, "_row": 8529, "unes": 8530, "ÙĦ": 8531, "Ġ}).": 8532, "Assert": 8533, "agen": 8534, "ĠHand": 8535, "Iter": 8536, "Ġbiggest": 8537, "oreach": 8538, "Ġpolic": 8539, "Ġpermissions": 8540, "Ġshowed": 8541, "ĠElement": 8542, "Ġtopic": 8543, "âĢĶâĢĶ": 8544, "road": 8545, "ĠBank": 8546, "record": 8547, "Ġpartners": 8548, "ĠRef": 8549, "essions": 8550, "Ġassess": 8551, "UST": 8552, "ĠParty": 8553, "produ": 8554, "LC": 8555, "Ġul": 8556, ".form": 8557, "hide": 8558, "copy": 8559, "UTF": 8560, "ĠSOFTWARE": 8561, "čĊčĊčĊ": 8562, "ĠLin": 8563, "una": 8564, "ugar": 8565, "Ġadministration": 8566, "Ġopening": 8567, "Ġscan": 8568, "Ġcontinued": 8569, "component": 8570, ".sp": 8571, "Ġhappens": 8572, "ummy": 8573, "ĠPR": 8574, ".File": 8575, "ĠDownload": 8576, "Loading": 8577, "di": 8578, "Ġwaiting": 8579, "_ADD": 8580, "Tab": 8581, ".querySelector": 8582, "Ġeconomy": 8583, "ĠFrench": 8584, "txt": 8585, "Ġfant": 8586, "_;Ċ": 8587, "Holder": 8588, "SH": 8589, "Ġnumpy": 8590, "Ġstreet": 8591, "Ġmale": 8592, "\\Model": 8593, "anging": 8594, "ĠBill": 8595, "Ġpreviously": 8596, "BI": 8597, "ĠSecret": 8598, "Ġmist": 8599, "ĠField": 8600, "ups": 8601, "ĠProcess": 8602, "Ġkept": 8603, "ĠOT": 8604, "Ġtraditional": 8605, ".i": 8606, "amin": 8607, "Ġhelps": 8608, "Any": 8609, "origin": 8610, "ilters": 8611, "ju": 8612, "desc": 8613, "ĠAccount": 8614, "Ġ)čĊ": 8615, "ktop": 8616, "olly": 8617, "Ġfs": 8618, "Ġê": 8619, "Ġut": 8620, "Ġcentral": 8621, "(test": 8622, ".An": 8623, "Ġsatisf": 8624, "GR": 8625, "ĠFull": 8626, "Ġheat": 8627, "iber": 8628, "Ġonto": 8629, "mos": 8630, "Schema": 8631, "Ġfactory": 8632, "\".$": 8633, "aws": 8634, "Statement": 8635, "(target": 8636, "ĉnew": 8637, ".be": 8638, "Ġguest": 8639, "Ġmal": 8640, "ARY": 8641, "Ġreached": 8642, "Ġmouse": 8643, "Ġchallenge": 8644, "ĉdouble": 8645, "ĠTem": 8646, "Ġterror": 8647, "Ġextract": 8648, "_TO": 8649, "Ġseparate": 8650, "Ġmir": 8651, "help": 8652, "Ġcapacity": 8653, "ĠProperty": 8654, "kan": 8655, "_create": 8656, "ĠLight": 8657, ".parent": 8658, "Ġunderstanding": 8659, "Ġeasier": 8660, "Ġ|=": 8661, "Ġenh": 8662, "Ġfat": 8663, "Ġprotest": 8664, "amm": 8665, "_AT": 8666, "-of": 8667, "ils": 8668, "ĠOh": 8669, "Ġpsych": 8670, "Ġ$.": 8671, "inds": 8672, "Ġrelative": 8673, "shop": 8674, "short": 8675, "ĠSand": 8676, "uestion": 8677, "Ġfear": 8678, "/ĊĊ": 8679, ".context": 8680, "Ġschools": 8681, "Ġserve": 8682, "zone": 8683, "_db": 8684, "Ġmajority": 8685, "example": 8686, "Ġlang": 8687, "ĉĠĠ": 8688, "Register": 8689, "endo": 8690, "Ġprocessing": 8691, "_template": 8692, "-user": 8693, "Ġeg": 8694, "COM": 8695, "ĠBlue": 8696, "iro": 8697, "Ġremote": 8698, "ĠIT": 8699, "#!/": 8700, "Ġredistrib": 8701, "raz": 8702, "ĠSince": 8703, "ĠTur": 8704, "Background": 8705, "===": 8706, "Ġreflect": 8707, "Ġpros": 8708, "cmd": 8709, "Ġwhom": 8710, "Compat": 8711, "ĠAre": 8712, "Identifier": 8713, "ĠThom": 8714, "_port": 8715, "gu": 8716, "Ġmonitor": 8717, "rm": 8718, "Ġpatient": 8719, "verter": 8720, "Ġgain": 8721, "-ui": 8722, "Inst": 8723, "Ġdies": 8724, "Area": 8725, "_filter": 8726, "Ġgrat": 8727, "Ġreality": 8728, "ordinate": 8729, "olved": 8730, "Contact": 8731, "Ġcompliance": 8732, "_or": 8733, "ĠVar": 8734, "dl": 8735, "Ġappend": 8736, "GER": 8737, "(max": 8738, ".render": 8739, "Ġdynamic": 8740, "ordinates": 8741, "_options": 8742, "_column": 8743, "Ġbatter": 8744, "space": 8745, "La": 8746, "ĠSource": 8747, "/bin": 8748, "Ġdos": 8749, "ĠBoard": 8750, "ĠThread": 8751, "ĠAL": 8752, "(config": 8753, "ĠMer": 8754, "Ġmiles": 8755, "_header": 8756, "ETHOD": 8757, "izz": 8758, "Ġbenefit": 8759, "Ġintegr": 8760, "(current": 8761, "ulo": 8762, ".default": 8763, "ĠDiv": 8764, "Ġton": 8765, "oth": 8766, "ervation": 8767, "edom": 8768, "Ġbaby": 8769, "ceived": 8770, ".top": 8771, "riority": 8772, "ĠLocal": 8773, "riage": 8774, "Ġattacks": 8775, "Ġhospital": 8776, "Ġfemale": 8777, "ĠLogin": 8778, "ĠFlor": 8779, "Ġchain": 8780, "ashion": 8781, "Texture": 8782, "Save": 8783, "Ġfarm": 8784, ".contains": 8785, ".Test": 8786, "Ġknows": 8787, "Ġgenerally": 8788, "ipeline": 8789, "Ġmeant": 8790, "encia": 8791, "Ġnicht": 8792, "Ġcontents": 8793, "PM": 8794, "chedule": 8795, "(line": 8796, "CG": 8797, "job": 8798, "ĠReal": 8799, "uer": 8800, "firm": 8801, "ĠØ": 8802, "etro": 8803, "\"`Ċ": 8804, "Ġspeech": 8805, "Ġthr": 8806, "foreach": 8807, "Ġwarn": 8808, "ĉl": 8809, "Ġheavy": 8810, "<li": 8811, "Ne": 8812, "Ġinvestigation": 8813, "Math": 8814, "-title": 8815, "Ġchurch": 8816, "Ġdespite": 8817, "chain": 8818, "Ġwhatever": 8819, "arian": 8820, "fn": 8821, "Ġmeta": 8822, "})ĊĊ": 8823, "UFF": 8824, "Ġregarding": 8825, "_SUCCESS": 8826, "mes": 8827, "ĠIntent": 8828, "Ġresolve": 8829, "poss": 8830, "ira": 8831, "force": 8832, "oice": 8833, "Ã¢": 8834, "Ġpm": 8835, "Ġupdates": 8836, "Arr": 8837, "ĠÑ": 8838, "testing": 8839, "Ġtoward": 8840, "ntax": 8841, "ëĭ": 8842, "Ġlisten": 8843, "Ġgoals": 8844, "InstanceState": 8845, "Dr": 8846, "Ġrare": 8847, "Ġtrail": 8848, "Keys": 8849, "Cal": 8850, "Car": 8851, "ĠPeople": 8852, "ĉlocal": 8853, "classes": 8854, "Reference": 8855, ".forEach": 8856, "emb": 8857, "activ": 8858, "Ġprim": 8859, "redict": 8860, "Ġrad": 8861, ".Back": 8862, "Ġspread": 8863, "Ġclock": 8864, "Ġvir": 8865, "editor": 8866, "Ġefforts": 8867, "Ġbranch": 8868, "Ġindust": 8869, "Ġmotor": 8870, "Ġamb": 8871, "Ġdatetime": 8872, "Ġrencont": 8873, "ĠChristian": 8874, "ĠAmericans": 8875, "full": 8876, "Ġfmt": 8877, ".main": 8878, "Ġcaused": 8879, "_update": 8880, "ĠContent": 8881, "ATCH": 8882, "Ġbath": 8883, "ĠEach": 8884, "Ġradio": 8885, "achment": 8886, "uzz": 8887, "Submit": 8888, "Ġrestrict": 8889, "abin": 8890, "ĠLoad": 8891, "Ġextension": 8892, "Ġessay": 8893, "Ġhat": 8894, "aviour": 8895, "toBe": 8896, "\":[": 8897, "Ġoffered": 8898, "Ġvill": 8899, "(double": 8900, "bc": 8901, "_free": 8902, "ĠMiss": 8903, "ĠBer": 8904, "Ġè": 8905, "ĠLike": 8906, "Ġhelped": 8907, ".getName": 8908, "_AL": 8909, "Ġspirit": 8910, "ĠApache": 8911, "ws": 8912, "Ġtherefore": 8913, "(params": 8914, "_img": 8915, "Ġpeace": 8916, "Ġincor": 8917, "ĠEXPECT": 8918, "Ġminor": 8919, "ipes": 8920, "ĉdata": 8921, "selector": 8922, "city": 8923, "trie": 8924, ".base": 8925, "_frame": 8926, "Ġopened": 8927, "/json": 8928, "LY": 8929, "nu": 8930, ".De": 8931, "tf": 8932, "margin": 8933, ".Parse": 8934, "Ġpi": 8935, "Ġeq": 8936, "bd": 8937, "Fields": 8938, "ĠTree": 8939, "Ġban": 8940, "istan": 8941, "ĊĠĠĠĠĠĠĠĠĊ": 8942, "ĉgl": 8943, "Ġproduced": 8944, "system": 8945, "Mark": 8946, "_hash": 8947, "Ġbg": 8948, "Ġconstit": 8949, "ĠLeague": 8950, "Ġmission": 8951, "_format": 8952, "([Ċ": 8953, "clusion": 8954, "!\"": 8955, "Ð·": 8956, "break": 8957, "ĉswitch": 8958, "Ġther": 8959, "Transform": 8960, "Ġfootball": 8961, "-link": 8962, "route": 8963, ".auth": 8964, "Ġbag": 8965, "overs": 8966, "Ġenabled": 8967, "Ġrac": 8968, "(I": 8969, "CR": 8970, "ancing": 8971, "Ġmanaged": 8972, "_q": 8973, "NGTH": 8974, "Ġmac": 8975, "ĠAuto": 8976, "amente": 8977, "Ġ'',": 8978, ".Append": 8979, "Ġpin": 8980, ".item": 8981, "acking": 8982, "Ġoccas": 8983, "person": 8984, "Ġti": 8985, ".Reg": 8986, "Ġhaven": 8987, "Ġglass": 8988, "Ġ\"</": 8989, "ĠSimple": 8990, "Print": 8991, "Ġsurround": 8992, "NO": 8993, "ãĢĤĊ": 8994, "ĠĠĠĠĠĠĠĠčĊ": 8995, "ĠMany": 8996, "Ġ\"_": 8997, "Ġweekend": 8998, "Ġsomew": 8999, ".params": 9000, "small": 9001, "ATED": 9002, "Ġplugin": 9003, "fields": 9004, "ĠInitialize": 9005, "oon": 9006, "atile": 9007, "ye": 9008, "Ġvous": 9009, "LAG": 9010, "Ġolder": 9011, "Ġgam": 9012, "Ġextremely": 9013, "Ġhet": 9014, "enum": 9015, "ĠSET": 9016, "xff": 9017, "Ġtimer": 9018, "/index": 9019, "Ġcritical": 9020, "Rows": 9021, "_argument": 9022, "Ġexecute": 9023, "Ġshowing": 9024, ".xml": 9025, "-list": 9026, "Role": 9027, "typename": 9028, "_method": 9029, "that": 9030, "cher": 9031, "ĠâĨ": 9032, "XT": 9033, "Ġthousands": 9034, "ĉn": 9035, "Ġresp": 9036, "_price": 9037, "olut": 9038, "Ag": 9039, "ĠTwo": 9040, "Ġbecomes": 9041, "Ġhus": 9042, ".Use": 9043, "theme": 9044, "urb": 9045, "Ġ/*Ċ": 9046, "erialize": 9047, "ARN": 9048, "Ġlose": 9049, "Lower": 9050, "Ġvel": 9051, "Ġdefense": 9052, "condition": 9053, "Ġbes": 9054, "Ġdry": 9055, "Ġscroll": 9056, ".Show": 9057, "IEL": 9058, "Ð¾ÑĢ": 9059, "ĠRest": 9060, "Where": 9061, "oods": 9062, "ĠJes": 9063, "Ġwire": 9064, "_INFO": 9065, "Ġstrings": 9066, "gment": 9067, "Ġmatches": 9068, "Ġelectric": 9069, "Ġexcellent": 9070, "ĠCouncil": 9071, "idade": 9072, "Ġwx": 9073, "push": 9074, "_entry": 9075, "Ġtasks": 9076, "Ġrich": 9077, "sa": 9078, "ĠSmith": 9079, "UNCTION": 9080, "Pointer": 9081, "pective": 9082, "Ġwidget": 9083, "ista": 9084, "Ġagency": 9085, "Ġsich": 9086, "ologies": 9087, "Ġtrial": 9088, "alysis": 9089, ".check": 9090, "ARK": 9091, "ĠonChange": 9092, "about": 9093, "',$": 9094, "(val": 9095, "Ġplaced": 9096, "_NO": 9097, "Ġdan": 9098, ".equal": 9099, "ĉĠĠĠĠĠ": 9100, "Ġweather": 9101, ".game": 9102, "Ġdestination": 9103, "_USER": 9104, "iece": 9105, "Ġprovider": 9106, ".last": 9107, "plex": 9108, "Note": 9109, "/js": 9110, "ĠpÃ¥": 9111, "Ġplanning": 9112, "attribute": 9113, "PRO": 9114, "atches": 9115, "Ġ<-": 9116, "Ġseeing": 9117, "Ġcancel": 9118, "_ind": 9119, ".keys": 9120, "Ġvisual": 9121, "ĠCurrent": 9122, "ĠCollege": 9123, "ĠRock": 9124, "Ġagreement": 9125, "ĠStore": 9126, "oving": 9127, "Ġcorner": 9128, "ampions": 9129, "ISE": 9130, "Fin": 9131, "Ġprotection": 9132, "Ġfi": 9133, "Play": 9134, "plugin": 9135, ")}": 9136, ".frame": 9137, "-z": 9138, "Ġtransition": 9139, "igin": 9140, "Ġcandidate": 9141, "ĠUnion": 9142, "_values": 9143, "(map": 9144, "cle": 9145, "Ġtrend": 9146, "wide": 9147, "aren": 9148, "Loc": 9149, "UTH": 9150, "ĠBay": 9151, "Ġsmaller": 9152, "ius": 9153, "well": 9154, "Ġcriminal": 9155, "Ġconflic": 9156, "bert": 9157, "_INT": 9158, "Ġinvestment": 9159, "custom": 9160, "ĠSession": 9161, "_write": 9162, "ania": 9163, "ĠMass": 9164, "_EQ": 9165, "_NOT": 9166, "Ġviolence": 9167, "Argument": 9168, "_email": 9169, "Ġbelong": 9170, "_function": 9171, "Ġenemy": 9172, "ema": 9173, "ĠAddress": 9174, ".empty": 9175, "Ġinner": 9176, "ĠContact": 9177, "Loader": 9178, "<input": 9179, "ĠCA": 9180, "lot": 9181, "Ġpictures": 9182, "ĠSupport": 9183, "_names": 9184, "Layer": 9185, "ĠClick": 9186, "Sum": 9187, "Ã¦": 9188, "ĠLook": 9189, "uous": 9190, "Lib": 9191, "Flags": 9192, "team": 9193, "EP": 9194, "hat": 9195, "override": 9196, "apsed": 9197, "Ġlabels": 9198, "quis": 9199, "ĠStream": 9200, "_device": 9201, "ĠCommit": 9202, "(root": 9203, "\"}": 9204, ".isEmpty": 9205, "ĉM": 9206, "Ġangle": 9207, "ĠBecause": 9208, "%%%%%%%%": 9209, "Ġaim": 9210, "Ġstick": 9211, "stmt": 9212, "agraph": 9213, "answer": 9214, "Ġclin": 9215, "ĠIsl": 9216, ".ext": 9217, "ĠINT": 9218, "Ġstyles": 9219, "Ġborn": 9220, "Ġscr": 9221, "Ġexpand": 9222, "Ġraised": 9223, "TextBox": 9224, "ILL": 9225, "------------------------------------------------": 9226, "HTTP": 9227, ">)": 9228, "_char": 9229, "resource": 9230, "Ġepisode": 9231, "Ġ'_": 9232, "ĠEs": 9233, "ĠEarth": 9234, "ÂłÂł": 9235, "UPDATE": 9236, "ĠSou": 9237, "uis": 9238, "types": 9239, "Ġmas": 9240, "Ġfav": 9241, "Ġconstruct": 9242, "_rate": 9243, "eras": 9244, "Ġ|Ċ": 9245, "roperties": 9246, "Ġexternal": 9247, "Ġapplied": 9248, "Ġprefix": 9249, "oted": 9250, "lers": 9251, "Ġcold": 9252, "ĠSP": 9253, "ĠChurch": 9254, "ĠOutput": 9255, "losed": 9256, "çļ": 9257, "ificate": 9258, "operation": 9259, "herit": 9260, "xFF": 9261, ".env": 9262, "_err": 9263, "osh": 9264, "Direction": 9265, "Cancel": 9266, "ĠFrank": 9267, "Ġfinding": 9268, ".)ĊĊ": 9269, "Ġrouter": 9270, "ãĥ»": 9271, "ses": 9272, "Ġcrow": 9273, "=='": 9274, "Ġsand": 9275, "Ġrid": 9276, "iture": 9277, "Ġentre": 9278, "Ġobserv": 9279, "Ġvac": 9280, "ðŁ": 9281, "-T": 9282, "Art": 9283, "night": 9284, ".search": 9285, "Ġexchange": 9286, "Ġdistrict": 9287, ".os": 9288, "Ġdepartment": 9289, "Ġdocuments": 9290, "Ġcentury": 9291, "ĠNext": 9292, "Host": 9293, "ĠKIND": 9294, "Ġsusp": 9295, "-P": 9296, "rend": 9297, ".em": 9298, "uite": 9299, "isters": 9300, "(json": 9301, "ĠAnn": 9302, "wt": 9303, "ati": 9304, "ĠHTML": 9305, "when": 9306, "Directory": 9307, "Ġshut": 9308, "<a": 9309, "edy": 9310, "Ġhealthy": 9311, "Ġtemperature": 9312, "ĠGen": 9313, "Ġmetal": 9314, "Ġsubmit": 9315, "ĠDO": 9316, "Ġattract": 9317, "Ġ{};Ċ": 9318, "ĠWord": 9319, "Ġll": 9320, "Ġseemed": 9321, "ko": 9322, "IED": 9323, "Ġlabor": 9324, ".Context": 9325, "Ġasset": 9326, "you": 9327, "Ġcars": 9328, "ĠColumn": 9329, "ĠrÃ©": 9330, "Ġsquare": 9331, "ĠNSString": 9332, "âĢĿ,": 9333, "apes": 9334, "...Ċ": 9335, "Ġthanks": 9336, "(props": 9337, "Ġtick": 9338, "Ġexperiment": 9339, "Ġprison": 9340, "tree": 9341, "-text": 9342, "ĠIOException": 9343, "-width": 9344, "_STATUS": 9345, "fast": 9346, "-body": 9347, "-header": 9348, "Ġguar": 9349, "crete": 9350, "ĠTim": 9351, "Ġclearly": 9352, "ĠRepublican": 9353, "Ġjustify": 9354, "Ð¸ÑĤ": 9355, "ĉĠĠĠĠ": 9356, "cache": 9357, ";//": 9358, "Ġpresence": 9359, "Ġfactors": 9360, "Ġemployee": 9361, "]))": 9362, "Member": 9363, "Ġselector": 9364, "bor": 9365, "ĠMex": 9366, "utex": 9367, "_tag": 9368, "ailure": 9369, "ĠNet": 9370, "Ġreli": 9371, "EG": 9372, "Ġfprintf": 9373, "Ġteen": 9374, "loss": 9375, "Ġleaving": 9376, "Delegate": 9377, "Ġbeat": 9378, "Ġminute": 9379, "subscribe": 9380, "Ġredistribute": 9381, "Constants": 9382, "Ġcancer": 9383, "/{": 9384, "BL": 9385, "Ġspan": 9386, "ĠChild": 9387, "Center": 9388, "Ġearth": 9389, "YS": 9390, "ĠLevel": 9391, "Ġsea": 9392, ".support": 9393, ".inner": 9394, ".Item": 9395, "illing": 9396, "ĠĠĠĠĊĠĠĠĠĊ": 9397, "ĠLabel": 9398, "ĠEst": 9399, "(arg": 9400, "boBox": 9401, "ĉforeach": 9402, "cos": 9403, "Failed": 9404, "swers": 9405, "Editor": 9406, "ront": 9407, "ĠMP": 9408, "expr": 9409, "ĠLife": 9410, "Ġ??": 9411, "Ã¶r": 9412, "Ġattend": 9413, "ĠQue": 9414, "Ġspecies": 9415, "-D": 9416, "Ġaus": 9417, "Struct": 9418, "Ġadvantage": 9419, "oston": 9420, "-block": 9421, "initial": 9422, "CRE": 9423, "Ġtruly": 9424, "Ġcompare": 9425, "orney": 9426, "Ġspect": 9427, "Full": 9428, "bes": 9429, "Ġvisible": 9430, "Ġmess": 9431, "stances": 9432, "Ġcloud": 9433, "_version": 9434, "Ġfurn": 9435, "icago": 9436, "LOW": 9437, "Ġtraffic": 9438, "Ġfol": 9439, "rypto": 9440, "Ġdeclar": 9441, "Ġslot": 9442, "ĠExt": 9443, "ĠEngland": 9444, "ĠUnder": 9445, "Ġta": 9446, "letter": 9447, "Ġofficer": 9448, "ĠDonald": 9449, "Yes": 9450, "_json": 9451, "ITableView": 9452, "ĠUSE": 9453, "mployee": 9454, "Ġopinion": 9455, "ĠAut": 9456, "border": 9457, "Ġadvice": 9458, "Ġautomatically": 9459, "isco": 9460, "Ġmm": 9461, ".vis": 9462, "aml": 9463, "Ġinitialize": 9464, "Ġ({": 9465, "Ġ;ĊĊ": 9466, "Ġgeneration": 9467, "Ġbits": 9468, "clipse": 9469, "Ġunf": 9470, "utors": 9471, "plt": 9472, "Ġdelta": 9473, "estroy": 9474, "isis": 9475, "<br": 9476, "Ġlimitations": 9477, "Ġended": 9478, "ĠMad": 9479, "ilm": 9480, "These": 9481, "ĠMinister": 9482, "Ġchart": 9483, "Fragment": 9484, "Ġindependent": 9485, "Year": 9486, "Ġinstr": 9487, "Ġtags": 9488, "AVE": 9489, "ĠArch": 9490, "stop": 9491, "Progress": 9492, "Ġmi": 9493, "Ġlearned": 9494, "Ge": 9495, "Ġhotel": 9496, "SM": 9497, "TYPE": 9498, "Ġcy": 9499, "ERSION": 9500, "unately": 9501, "limit": 9502, "sel": 9503, "Ġmovies": 9504, "Ġsteel": 9505, "oz": 9506, "gb": 9507, "ĠCamp": 9508, "site": 9509, "ĠLogger": 9510, "PLE": 9511, "Ð¾Ð´": 9512, ".right": 9513, "ĠCore": 9514, "Ġmixed": 9515, "step": 9516, "Ġputs": 9517, "super": 9518, "Router": 9519, ".Http": 9520, "lyph": 9521, "ĠColors": 9522, "Ġandroidx": 9523, ".str": 9524, "Ġinnov": 9525, "Ġdeck": 9526, "'>Ċ": 9527, "apers": 9528, "](": 9529, "continue": 9530, "spec": 9531, "ĠRoad": 9532, "ASH": 9533, "iliar": 9534, "Ġcontinues": 9535, "Ġappoint": 9536, "Ġ#Ċ": 9537, "ĠVir": 9538, "Ġ?>\"": 9539, "Ġbin": 9540, "}\",": 9541, "going": 9542, "each": 9543, "BD": 9544, "ĠAccess": 9545, "Doc": 9546, "ĠManagement": 9547, "BER": 9548, "asket": 9549, ".getInstance": 9550, "Ġestablished": 9551, "socket": 9552, "INS": 9553, "ĉvirtual": 9554, "ĉresult": 9555, "READ": 9556, "_height": 9557, "ĠFont": 9558, "Ġ();Ċ": 9559, "_html": 9560, "Ġneighbor": 9561, "lor": 9562, "Ġgather": 9563, "Ġ})ĊĊ": 9564, "Ġidentity": 9565, "Ġfab": 9566, "padding": 9567, "ĠRoute": 9568, "Enumerable": 9569, "Ã´": 9570, "Ġforced": 9571, "/jquery": 9572, ".ĊĊĊĊĊĊ": 9573, "resents": 9574, "_left": 9575, ".Param": 9576, "ĉthrow": 9577, "ĠHam": 9578, "Ġeventually": 9579, "acer": 9580, "pub": 9581, "Ġtra": 9582, "unique": 9583, "del": 9584, "ĠFlorida": 9585, "ĠClean": 9586, "xa": 9587, "ĠÂ·": 9588, "Ġvalidate": 9589, "Visual": 9590, "Expression": 9591, "_func": 9592, "member": 9593, "ĉh": 9594, "trl": 9595, "ĉG": 9596, "napshot": 9597, "ĠPropTypes": 9598, "vin": 9599, "])ĊĊ": 9600, "owl": 9601, "ifies": 9602, "Ġ$('.": 9603, "ĠContext": 9604, "ĠToast": 9605, ".Key": 9606, "Ġofficers": 9607, "/n": 9608, "sn": 9609, "undefined": 9610, ".items": 9611, "utow": 9612, "amage": 9613, "Ġaccounts": 9614, "ookie": 9615, "Section": 9616, "icians": 9617, "Ġadvis": 9618, "(is": 9619, "[:,": 9620, "ĠFrance": 9621, "Func": 9622, "icious": 9623, "Ġtok": 9624, "Channel": 9625, "ĠAD": 9626, "_NUM": 9627, "Ġtimeout": 9628, "lemma": 9629, "reme": 9630, "uj": 9631, ".Al": 9632, "uclear": 9633, "(os": 9634, "(\"<": 9635, "[Ċ": 9636, "fetch": 9637, "Ġbal": 9638, "Ġguid": 9639, "-align": 9640, "ĠWrite": 9641, "ĠOnce": 9642, "utowired": 9643, "ODULE": 9644, "Ġpitch": 9645, "CF": 9646, "bytes": 9647, "ĠCommission": 9648, "Ġincred": 9649, "PER": 9650, "_response": 9651, "ĠLos": 9652, "parser": 9653, "Ġassume": 9654, ".Request": 9655, "ĠToken": 9656, "_position": 9657, "Ġnom": 9658, "-term": 9659, "Ġremaining": 9660, "iostream": 9661, "Ġpieces": 9662, "apy": 9663, "ĠLess": 9664, "range": 9665, "umbn": 9666, "prise": 9667, "_option": 9668, "Impl": 9669, "kwargs": 9670, "Ġbusinesses": 9671, "Alert": 9672, "Ġparties": 9673, "ĠContainer": 9674, "ĠPrivate": 9675, "ĠPlan": 9676, "Ġregistered": 9677, "Ġjour": 9678, "acker": 9679, "ÐµÐ½Ð¸": 9680, "/>": 9681, "chat": 9682, "sect": 9683, "Ġcreation": 9684, "olutely": 9685, "Ġinstant": 9686, "Ġdelivery": 9687, "icken": 9688, "yes": 9689, "ĠFranc": 9690, "bling": 9691, "enda": 9692, "[(": 9693, "_range": 9694, "ĠĠĠĠĠĠĠĠĠĠĠĠĠĠĠĠĠĠĠĠĠĠĠĠĠĠĠĠĠĠĠĠĠĠ": 9695, "Ġschedule": 9696, "Conn": 9697, "Ġthank": 9698, "xd": 9699, "Ġhook": 9700, "Ġdocumentation": 9701, "Parameters": 9702, "Hello": 9703, "vt": 9704, "Ġarticles": 9705, "Ġwest": 9706, "defined": 9707, ".select": 9708, "okens": 9709, "ĠVAL": 9710, ".file": 9711, "reset": 9712, "Ġmys": 9713, "ĠMA": 9714, "]),": 9715, "Ġcities": 9716, "related": 9717, "åĽ": 9718, "Ġappeared": 9719, "Ġwid": 9720, ".panel": 9721, "ĠIns": 9722, ".entity": 9723, "Ġdecre": 9724, "ĠLou": 9725, "(time": 9726, "ĠThank": 9727, ".createElement": 9728, "Ġmentioned": 9729, "ounce": 9730, "ĠTry": 9731, "ĠWall": 9732, "/images": 9733, "ĠMenu": 9734, "'čĊ": 9735, "ĠEr": 9736, "Ġcritic": 9737, "ĠYear": 9738, "(param": 9739, "Ġflo": 9740, "NN": 9741, "ooter": 9742, "Ġ];Ċ": 9743, "ĠAff": 9744, "\"github": 9745, "rooms": 9746, "Ġhyp": 9747, "global": 9748, "Ġavec": 9749, "Ġcompletion": 9750, "Ġcond": 9751, "onymous": 9752, "(temp": 9753, "Ġstars": 9754, "Ġrelevant": 9755, "Ġcovered": 9756, "Ġelim": 9757, "_types": 9758, "(bool": 9759, "Ġtu": 9760, "_exists": 9761, "Ġsecure": 9762, "Ġstored": 9763, "]/": 9764, "xF": 9765, "ĠController": 9766, "Ġmigr": 9767, "MI": 9768, "ĠDen": 9769, "Ġannual": 9770, "UIL": 9771, "-and": 9772, "Ġcrime": 9773, "bel": 9774, "Ġkitchen": 9775, "@g": 9776, "_ph": 9777, "ournament": 9778, "ĠSocial": 9779, "ĠSpecial": 9780, "logger": 9781, "Ġtail": 9782, "Ġunknown": 9783, "ded": 9784, "Ġapprec": 9785, "(db": 9786, "cf": 9787, "Ġassign": 9788, "-out": 9789, "ĠMont": 9790, "dp": 9791, "widget": 9792, "Ġstone": 9793, "-primary": 9794, ".grid": 9795, "Results": 9796, "azz": 9797, "Ġdaughter": 9798, "Ġcurr": 9799, "Ġlin": 9800, "Ġsouth": 9801, "forms": 9802, "ĠOUT": 9803, "lette": 9804, "aks": 9805, "igure": 9806, "ĠEU": 9807, "variable": 9808, "Ġbrief": 9809, "ĠScott": 9810, "Ġconference": 9811, "anda": 9812, "_lock": 9813, "oral": 9814, "Ġeine": 9815, "ORS": 9816, "////////////////////////////////////////////////////////////////": 9817, "esso": 9818, "Ġris": 9819, "Ġgender": 9820, "estic": 9821, "License": 9822, "(out": 9823, "Ġms": 9824, "See": 9825, "Ġwilling": 9826, "aze": 9827, "Ġsports": 9828, "Ġyes": 9829, "lu": 9830, "Ġpurs": 9831, "/javascript": 9832, "-pro": 9833, "navbar": 9834, "_product": 9835, "/bootstrap": 9836, "Ġdriving": 9837, "ĠÄ": 9838, "Ġpropos": 9839, "ultip": 9840, "uplic": 9841, ".email": 9842, "Ġapprox": 9843, "(cl": 9844, "Ġwear": 9845, "Ġreply": 9846, "asset": 9847, "Ġice": 9848, "Ġtx": 9849, "kr": 9850, "ĠGermany": 9851, "ĠGeorge": 9852, "Ġcb": 9853, "ĉerr": 9854, "Move": 9855, "Ġpoly": 9856, "voice": 9857, "}\"": 9858, "Ġanimal": 9859, "Av": 9860, "ĠLocation": 9861, "Ġnative": 9862, "][\"": 9863, "<double": 9864, "Ġmais": 9865, ",int": 9866, "Ġprepar": 9867, "Ġinterval": 9868, "plementation": 9869, "_ERR": 9870, "Ġbug": 9871, ">\"": 9872, "stat": 9873, "Ġ},čĊ": 9874, "<span": 9875, "Ġfaith": 9876, "Ġrom": 9877, "prev": 9878, "ĠElect": 9879, "Find": 9880, "Ġgod": 9881, "otor": 9882, "//----------------------------------------------------------------": 9883, "original": 9884, "Cpp": 9885, "ĠSenate": 9886, "Ġpositions": 9887, "Ġweapons": 9888, "Ġcoff": 9889, "Ġpurposes": 9890, "pol": 9891, "Ġimpress": 9892, "Ġanimals": 9893, ".Entity": 9894, "(np": 9895, "Ġmurder": 9896, "Ġ``": 9897, "flag": 9898, "Ġsolutions": 9899, "ĠActive": 9900, "Ġbright": 9901, ".date": 9902, "Ġsitu": 9903, "ï¼Ī": 9904, ".ID": 9905, "Ġsie": 9906, "),čĊ": 9907, "akt": 9908, "Space": 9909, ".dat": 9910, ".indexOf": 9911, "han": 9912, "azine": 9913, "ĠZe": 9914, "Ġcrash": 9915, "(/": 9916, ">=": 9917, "Ð±": 9918, "iva": 9919, ".AutoSize": 9920, "ĠLat": 9921, "_ext": 9922, "Initialize": 9923, ".register": 9924, "OPY": 9925, "Ġreverse": 9926, "_dis": 9927, "'][": 9928, "Ġprompt": 9929, "onto": 9930, "ĠJournal": 9931, "router": 9932, "Ġmysqli": 9933, "#else": 9934, ")\"": 9935, "-xs": 9936, "lets": 9937, "phan": 9938, ".LE": 9939, "Will": 9940, "Ġafford": 9941, "Ġskill": 9942, "-toggle": 9943, "NC": 9944, "Bind": 9945, "TS": 9946, "Just": 9947, "iteral": 9948, "YP": 9949, "ĉunsigned": 9950, "Ġwind": 9951, ")):Ċ": 9952, "Ġwarning": 9953, "ĠWater": 9954, "Ġdraft": 9955, "Ġcm": 9956, "Ġsam": 9957, "Ġholding": 9958, "zip": 9959, "ĠScience": 9960, "Ġsupposed": 9961, "Gen": 9962, "Ġdiet": 9963, "<h": 9964, "ĠPass": 9965, "vi": 9966, "Ġhusband": 9967, "ï¿½ï¿½": 9968, "note": 9969, "ĠAbout": 9970, "ĠInstitute": 9971, "Ġclimate": 9972, ".Format": 9973, "Ġnut": 9974, "ested": 9975, "Ġapparent": 9976, "Ġholds": 9977, "fi": 9978, "news": 9979, "CM": 9980, "video": 9981, "':'": 9982, "DITION": 9983, "ping": 9984, "Ġsenior": 9985, "wa": 9986, "-->Ċ": 9987, "_default": 9988, "ĠDatabase": 9989, "rep": 9990, "ESS": 9991, "nergy": 9992, ".Find": 9993, "_mask": 9994, "Ġrise": 9995, "Ġkernel": 9996, "::$": 9997, ".Q": 9998, "Ġoffering": 9999, "decl": 10000, "ĠCS": 10001, "Ġlisted": 10002, "Ġmostly": 10003, "enger": 10004, "Ġblocks": 10005, "olo": 10006, "Ġgoverning": 10007, "\\F": 10008, "Ġconcent": 10009, ".getText": 10010, "Ġmb": 10011, "Ġoccurred": 10012, "Ġchanging": 10013, "Scene": 10014, "_CODE": 10015, "Beh": 10016, "\"The": 10017, "Ġtile": 10018, "ĠAssociation": 10019, "ĉP": 10020, "alty": 10021, "_ad": 10022, "odies": 10023, "iated": 10024, "Ġprepared": 10025, "possible": 10026, "Ġmort": 10027, "TEST": 10028, "Ġignore": 10029, "Ġcalc": 10030, "Ġrs": 10031, "ĠassertEquals": 10032, "Ġsz": 10033, "ĠTHIS": 10034, ".\"Ċ": 10035, "Ġcanvas": 10036, "java": 10037, "Ġdut": 10038, "VALID": 10039, ".sql": 10040, ".input": 10041, "Ġaux": 10042, "Sup": 10043, "Ġartist": 10044, "Vec": 10045, "_TIME": 10046, ".stringify": 10047, "etween": 10048, "ĠCategory": 10049, "Ġ[-": 10050, "ĠDevExpress": 10051, "ĠJul": 10052, "Ġring": 10053, ".ed": 10054, "YY": 10055, "Let": 10056, "TextField": 10057, "Ġflat": 10058, "_print": 10059, "ĠOTHER": 10060, "adian": 10061, "Ġchecked": 10062, "ele": 10063, "Align": 10064, "standing": 10065, "Ġ[],": 10066, "Ġlab": 10067, "ucky": 10068, "ĠChristmas": 10069, "(image": 10070, ".module": 10071, "Ġlots": 10072, "Ġslightly": 10073, "(final": 10074, "erge": 10075, "è¿": 10076, "ĠPolice": 10077, "ĠRight": 10078, "Ġaward": 10079, "ĠOS": 10080, "Ġ{}ĊĊ": 10081, "Ġptr": 10082, "oves": 10083, "icated": 10084, "ÐµÐ¼": 10085, "Ġmanage": 10086, "oliday": 10087, "Amount": 10088, "oolStrip": 10089, "tbody": 10090, "Nav": 10091, "wrap": 10092, "BB": 10093, "Ġwatching": 10094, "arios": 10095, "Ġoptional": 10096, "_K": 10097, "ĠLicensed": 10098, ".Map": 10099, "Timer": 10100, "ĠAP": 10101, "ĠRev": 10102, "(o": 10103, ",c": 10104, "umin": 10105, "etailed": 10106, "ĠHy": 10107, "Ġblank": 10108, "agger": 10109, "ĠSelf": 10110, "()[": 10111, ".make": 10112, "earn": 10113, "channel": 10114, "<pre": 10115, "blem": 10116, "_password": 10117, "_sp": 10118, "icing": 10119, "ez": 10120, "Ġtheory": 10121, "ĠTer": 10122, ",n": 10123, "logo": 10124, "ĠHTTP": 10125, "()))": 10126, ".handle": 10127, ">;Ċ": 10128, "World": 10129, "Ġpython": 10130, "Ġlif": 10131, "Ġtrav": 10132, "Ġconven": 10133, "company": 10134, "ĠClub": 10135, "Ver": 10136, "Btn": 10137, "Ġzone": 10138, "products": 10139, "ĠEduc": 10140, "Ġverify": 10141, "ĠMil": 10142, "ono": 10143, "]);ĊĊ": 10144, "ENCE": 10145, "Ġpacket": 10146, "Ġcer": 10147, "Ġenumer": 10148, "Ġpars": 10149, "formed": 10150, "Ġoccup": 10151, "tre": 10152, "Ġexercise": 10153, "Day": 10154, "_sum": 10155, "Ġasking": 10156, "aption": 10157, "Ġorders": 10158, "Ġspending": 10159, "ĠERR": 10160, ".Dis": 10161, "ĠUtil": 10162, "âĢľI": 10163, "\\'": 10164, "?)": 10165, "/>Ċ": 10166, "Ġemot": 10167, "Ġinfluence": 10168, "ĠAfrica": 10169, "atters": 10170, "Ùħ": 10171, ".session": 10172, "Ġchief": 10173, "ĉĉĉĉĉĉĉĉĉĉĉ": 10174, "Ġtom": 10175, "cluded": 10176, "serial": 10177, "_handler": 10178, ".Type": 10179, "aped": 10180, "Ġpolicies": 10181, "-ex": 10182, "-tr": 10183, "blank": 10184, "merce": 10185, "Ġcoverage": 10186, "Ġrc": 10187, "_matrix": 10188, "_box": 10189, "Ġcharges": 10190, "ĠBoston": 10191, "Pe": 10192, "Ġcircum": 10193, "Ġfilled": 10194, "Ġnorth": 10195, "ictureBox": 10196, "ĉres": 10197, "è®": 10198, "Ġtermin": 10199, "Ġ[âĢ¦": 10200, "IRECT": 10201, "Ġber": 10202, "Ġ\"../../": 10203, "retch": 10204, ".code": 10205, "_col": 10206, "ĠGovernment": 10207, "Ġargv": 10208, "ĠLord": 10209, "asi": 10210, "Exec": 10211, "ĉlet": 10212, "vertis": 10213, "Ġdiscussion": 10214, "enance": 10215, "outube": 10216, "typeof": 10217, "Ġserved": 10218, "ĠPut": 10219, "ĉx": 10220, "Ġsweet": 10221, "Before": 10222, "ategy": 10223, ".of": 10224, "ĠMaterial": 10225, "Sort": 10226, "ONT": 10227, "igital": 10228, "Why": 10229, "Ġsust": 10230, "Ġç": 10231, "abet": 10232, "Ġsegment": 10233, "Ġ[],Ċ": 10234, "ĠMuslim": 10235, "ĠfindViewById": 10236, "cut": 10237, "_TEXT": 10238, "ĠMary": 10239, "Ġloved": 10240, "Ġlie": 10241, "ĠJO": 10242, "Ġisset": 10243, "month": 10244, "Ġprime": 10245, "ti": 10246, "ĠCarol": 10247, "Use": 10248, "ĠPop": 10249, "ĠSave": 10250, "Interval": 10251, "execute": 10252, "dy": 10253, "ĠIran": 10254, "_cont": 10255, "ĉT": 10256, "Ġphase": 10257, "checkbox": 10258, "week": 10259, "Ġhide": 10260, "Ġtil": 10261, "Ġju": 10262, "Custom": 10263, "burg": 10264, "/M": 10265, "TON": 10266, "Ġquant": 10267, "Ġrub": 10268, "ixels": 10269, "Ġinstalled": 10270, "Ġdump": 10271, "Ġproperly": 10272, "(List": 10273, "Ġdecide": 10274, "apply": 10275, "Has": 10276, "Ġkeeping": 10277, "Ġcitizens": 10278, "Ġjoint": 10279, "pool": 10280, "Socket": 10281, "_op": 10282, "Ġweapon": 10283, "gnore": 10284, "ĠExec": 10285, "otten": 10286, "ĠMS": 10287, "Ġ(-": 10288, "ĠReview": 10289, "Ġexamples": 10290, "Ġtight": 10291, "!(": 10292, "DP": 10293, "ĠMessageBox": 10294, "Ġphotograph": 10295, "URI": 10296, "Ã©t": 10297, "low": 10298, "ĠGrand": 10299, ".persistence": 10300, "Ġmaintain": 10301, "Ġnums": 10302, "Ġzip": 10303, "ials": 10304, "ĠGets": 10305, "peg": 10306, "ĠBuffer": 10307, "~~~~": 10308, "rastructure": 10309, "ĠPL": 10310, "uen": 10311, "obby": 10312, "sizeof": 10313, "Ġpic": 10314, "Ġseed": 10315, "Ġexperienced": 10316, "Ġodd": 10317, "Ġkick": 10318, "Ġprocedure": 10319, "avigator": 10320, "-on": 10321, ",j": 10322, "ĠAlthough": 10323, "ĠuserId": 10324, "accept": 10325, "Blue": 10326, "IColor": 10327, "layer": 10328, "available": 10329, "Ġends": 10330, ".table": 10331, "Ġdataset": 10332, "bus": 10333, "Ġexplain": 10334, "(pro": 10335, "ĠCommittee": 10336, "Ġnoted": 10337, "]:Ċ": 10338, "Dim": 10339, "stdio": 10340, ".\",Ċ": 10341, "_source": 10342, "ĠWeek": 10343, "ĠEdge": 10344, "Ġoperating": 10345, "Ġeste": 10346, "ipl": 10347, "agination": 10348, "Ġproceed": 10349, "Ġanimation": 10350, ".Models": 10351, "ĠWatch": 10352, "iat": 10353, "Ġoppon": 10354, "/A": 10355, "Report": 10356, "Ġsounds": 10357, "_buf": 10358, "IELD": 10359, "Ġbund": 10360, "ĉget": 10361, ".pr": 10362, "(tmp": 10363, "Ġkid": 10364, ">ĊĊĊ": 10365, "Ġyang": 10366, "NotFound": 10367, "ÑĨ": 10368, "math": 10369, "@gmail": 10370, "ĠLIMIT": 10371, "redients": 10372, "Ġvent": 10373, "avigate": 10374, "Look": 10375, "Ġreligious": 10376, "Ġrand": 10377, "rio": 10378, "(GL": 10379, "_ip": 10380, "uan": 10381, "iciency": 10382, "ĠChange": 10383, ">čĊčĊ": 10384, "ĠEntity": 10385, "Ġrencontre": 10386, "ĠRet": 10387, "plan": 10388, "Ã©n": 10389, "BOOL": 10390, "uries": 10391, "train": 10392, "Definition": 10393, "============": 10394, "zz": 10395, "Animation": 10396, "ĠOK": 10397, "_menu": 10398, ".bl": 10399, "_score": 10400, "Ġacad": 10401, "(System": 10402, "Ġrefresh": 10403, "'=>$": 10404, ".Graphics": 10405, "amento": 10406, "pid": 10407, "tc": 10408, "Ġtips": 10409, "Ġhomes": 10410, "Ġfuel": 10411, "âĸ": 10412, "_helper": 10413, "ĠĠčĊ": 10414, "ĠRoom": 10415, ".Close": 10416, "_attr": 10417, "ĠMount": 10418, "ĠEv": 10419, "arser": 10420, "_top": 10421, "eah": 10422, "ĠDelete": 10423, "ãĢį": 10424, "uke": 10425, "Ġusage": 10426, "aria": 10427, "_dev": 10428, "Ġtexture": 10429, "Ġconversation": 10430, "eper": 10431, "Bean": 10432, "done": 10433, "nonatomic": 10434, "ĠSecond": 10435, "Ġshooting": 10436, "_pre": 10437, "Components": 10438, "Ġ]ĊĊ": 10439, "__,": 10440, "stitution": 10441, ".Char": 10442, ">();ĊĊ": 10443, "Ġpresented": 10444, "Ġwa": 10445, "oker": 10446, "-ĊĊ": 10447, "iner": 10448, "Ġbecoming": 10449, "Ġincident": 10450, "Att": 10451, "Ġrevealed": 10452, "forc": 10453, "Ġboot": 10454, ".page": 10455, "Enumerator": 10456, "_->": 10457, "Photo": 10458, "Ġspring": 10459, ".\",": 10460, "ĠDictionary": 10461, "BJECT": 10462, "Ġlocations": 10463, "Ġsamples": 10464, "InputStream": 10465, "ĠBrown": 10466, "Ġstats": 10467, "quality": 10468, "Ñħ": 10469, "-dis": 10470, "Ġhelping": 10471, "Ġped": 10472, "(se": 10473, "ĠWho": 10474, "alian": 10475, "internal": 10476, "Ġft": 10477, ">().": 10478, "->{": 10479, "Ġmine": 10480, "Ġsector": 10481, "Ġgro": 10482, "Ġopportunities": 10483, "ĠÃ¼": 10484, "Ġmp": 10485, "Ġalleged": 10486, "Ġdoubt": 10487, "Mouse": 10488, "About": 10489, "_part": 10490, "Ġchair": 10491, "Ġstopped": 10492, "loop": 10493, "entities": 10494, "Ġapps": 10495, "ansion": 10496, "Ġmental": 10497, "ĠĠĠĠĠĠĠĠĠĠĠĠĠĠĠĠĠĠĠĠĠĠĠĠĠĠĠĠĠĠĠĠĠĠĠĠĠĠĠĠĠ": 10498, "FR": 10499, "Ġdefend": 10500, "care": 10501, "Ġideal": 10502, "/api": 10503, "urface": 10504, "Ġele": 10505, "ulator": 10506, "ĠRights": 10507, "anguages": 10508, "Ġfunds": 10509, "Ġadapt": 10510, "Attributes": 10511, "Ġdeploy": 10512, "opts": 10513, "Ġvalidation": 10514, "Ġconcerns": 10515, "uce": 10516, ".num": 10517, "ulture": 10518, "ila": 10519, "Ġcup": 10520, "Ġpure": 10521, ".Fore": 10522, "ĠHashMap": 10523, ".valueOf": 10524, "asm": 10525, "MO": 10526, "Ġcs": 10527, "Ġstores": 10528, "Ġ************************************************************************": 10529, "Ġcommunication": 10530, "mem": 10531, ".EventHandler": 10532, ".Status": 10533, "_right": 10534, ".setOn": 10535, "Sheet": 10536, "Ġidentify": 10537, "enerated": 10538, "ordered": 10539, "Ġ\"[": 10540, "Ġswe": 10541, "Condition": 10542, "ĠAccording": 10543, "Ġprepare": 10544, "Ġrob": 10545, "Pool": 10546, "Ġsport": 10547, "rv": 10548, "ĠRouter": 10549, "Ġalternative": 10550, "([]": 10551, "ĠChicago": 10552, "ipher": 10553, "ische": 10554, "ĠDirector": 10555, "kl": 10556, "ĠWil": 10557, "keys": 10558, "Ġmysql": 10559, "Ġwelcome": 10560, "king": 10561, "ĠManager": 10562, "Ġcaught": 10563, ")}Ċ": 10564, "Score": 10565, "_PR": 10566, "Ġsurvey": 10567, "hab": 10568, "Headers": 10569, "ADER": 10570, "Ġdecor": 10571, "Ġturns": 10572, "Ġradius": 10573, "errupt": 10574, "Cor": 10575, "Ġmel": 10576, "Ġintr": 10577, "(q": 10578, "ĠAC": 10579, "amos": 10580, "MAX": 10581, "ĠGrid": 10582, "ĠJesus": 10583, "ĠĠĠĠĠĠĠĠĠĠĠĠĠĠĠĠĠĠĠĠĠĠĠĠĠĠĠĠĠĠĠĠĠĠĠĠ": 10584, ".DE": 10585, "Ġts": 10586, "Ġlinked": 10587, "free": 10588, "ĠQt": 10589, "Ġ/**čĊ": 10590, "Ġfaster": 10591, "ctr": 10592, "_J": 10593, "DT": 10594, ".Check": 10595, "Ġcombination": 10596, "Ġintended": 10597, "-the": 10598, "-type": 10599, "ectors": 10600, "ami": 10601, "uting": 10602, "Ġuma": 10603, "XML": 10604, "UCT": 10605, "Ap": 10606, "ĠRandom": 10607, "Ġran": 10608, ".sort": 10609, "Ġsorted": 10610, ".Un": 10611, "_PER": 10612, "itory": 10613, "Ġpriority": 10614, "ĠGal": 10615, "ĠOld": 10616, "hot": 10617, "ĠDisplay": 10618, "(sub": 10619, "_TH": 10620, "_Y": 10621, "ĠCare": 10622, "loading": 10623, "Kind": 10624, "_handle": 10625, ",,": 10626, "rase": 10627, "_replace": 10628, ".addEventListener": 10629, "ĠRT": 10630, "Ġentered": 10631, "gers": 10632, "Ġich": 10633, "(start": 10634, "/app": 10635, "Ġbrother": 10636, "Memory": 10637, "Outlet": 10638, "Ġutf": 10639, "prec": 10640, "Ġnavigation": 10641, "ORK": 10642, "Ġdst": 10643, "Detail": 10644, "Ġaudience": 10645, "Ġdur": 10646, "Ġcluster": 10647, "unched": 10648, "Ġ],": 10649, "Ġcomfortable": 10650, ".values": 10651, "ĠTotal": 10652, "Ġsnap": 10653, "Ġstandards": 10654, "Ġperformed": 10655, "hand": 10656, "(\"@": 10657, "åŃ": 10658, "Ġphil": 10659, "ibr": 10660, "trim": 10661, "Ġforget": 10662, "Ġdoctor": 10663, ".TextBox": 10664, "icons": 10665, ",s": 10666, "ĠOp": 10667, "Sm": 10668, "Stop": 10669, "ĉList": 10670, "ĉu": 10671, "Comment": 10672, "_VERSION": 10673, ".Xtra": 10674, "Person": 10675, "rb": 10676, "LOB": 10677, "ĠĠĠĠĠĠĠĠĠĠĠĠĠĠĠĠĠĠĠĠĊ": 10678, "ĠCentral": 10679, "ICK": 10680, "raq": 10681, "Ġputting": 10682, "Ġmd": 10683, "ĠLove": 10684, "Program": 10685, "Border": 10686, "oor": 10687, "Ġallowing": 10688, "after": 10689, "Ġentries": 10690, "ĠMaybe": 10691, "]).": 10692, "ĠShort": 10693, ")\\": 10694, ".now": 10695, "friend": 10696, "Ġprefer": 10697, "ĠGPIO": 10698, "osis": 10699, "ĠGameObject": 10700, "Ġskip": 10701, "Ġcompetition": 10702, "_match": 10703, "lications": 10704, "_CONT": 10705, ".groupBox": 10706, "Ġals": 10707, "\"We": 10708, "_eq": 10709, "lan": 10710, "_search": 10711, "ĠMusic": 10712, "asis": 10713, "Ġbind": 10714, "ĠIsland": 10715, "rum": 10716, "(E": 10717, "Ġseat": 10718, "Video": 10719, "Ġack": 10720, "reek": 10721, "={()": 10722, "Ġrating": 10723, "Ġrestaurant": 10724, "DEX": 10725, "(buf": 10726, "pping": 10727, "uality": 10728, "Ġleague": 10729, "Ġfocused": 10730, "apon": 10731, "$data": 10732, "CLUD": 10733, "CLUDING": 10734, "Ġabsolute": 10735, "(query": 10736, "Ġtells": 10737, "Ang": 10738, "Ġcommunities": 10739, "Ġhonest": 10740, "oking": 10741, "Ġapart": 10742, "arity": 10743, "/$": 10744, "_module": 10745, "ĠEnc": 10746, ".an": 10747, ".Config": 10748, "Cre": 10749, "Ġshock": 10750, "ĠArab": 10751, "IENT": 10752, "/re": 10753, "Ġretrie": 10754, "ycler": 10755, "isa": 10756, "ĠOrgan": 10757, ".graph": 10758, "Ġí": 10759, "ĠBAS": 10760, "Enum": 10761, "Ġpossibly": 10762, "ÑĢÐ°Ð": 10763, "ĠJapanese": 10764, "Ġcraft": 10765, "ĠPlace": 10766, "Ġtalent": 10767, "Ġfunding": 10768, "Ġconfirmed": 10769, "Ġcycle": 10770, "/x": 10771, "GE": 10772, "Ġhearing": 10773, "Ġplants": 10774, "Ġmouth": 10775, "pages": 10776, "oria": 10777, "ĠRemove": 10778, "_total": 10779, "Ġod": 10780, "ollapse": 10781, "door": 10782, "Ġbought": 10783, "Ġaddr": 10784, "ARCH": 10785, "_dim": 10786, "dden": 10787, "Ġdecades": 10788, "REQUEST": 10789, "Ġversions": 10790, "fire": 10791, "Ġmoves": 10792, "fb": 10793, "Ġcoffee": 10794, ".connect": 10795, "ĠRow": 10796, "Ġschema": 10797, "Scope": 10798, "-Type": 10799, "Ġfighting": 10800, "Ġretail": 10801, "Ġmodified": 10802, "TF": 10803, "Files": 10804, "nie": 10805, "_command": 10806, "stone": 10807, "ĠÑĤ": 10808, "_thread": 10809, "Ġbond": 10810, "ĠDevelopment": 10811, "Ġpt": 10812, "FORM": 10813, "plet": 10814, "Ġidentified": 10815, "cpp": 10816, "Ġcoding": 10817, "oked": 10818, "ĠMaster": 10819, "IDTH": 10820, "Ġresidents": 10821, "redit": 10822, "ĠPhoto": 10823, "=-": 10824, "unte": 10825, "ateur": 10826, "_STATE": 10827, "ĠSing": 10828, "Ġsheet": 10829, ".val": 10830, "orse": 10831, "Ġhers": 10832, "Ġdetermined": 10833, "Common": 10834, "Ġwed": 10835, "_queue": 10836, "PH": 10837, "ĠAtl": 10838, "cred": 10839, "/LICENSE": 10840, "Ġmes": 10841, "Ġadvanced": 10842, ".java": 10843, ".Sh": 10844, "Go": 10845, "kill": 10846, "fp": 10847, "_settings": 10848, "Ġpal": 10849, "Ġtruck": 10850, "Ġcombined": 10851, "Ġ\"${": 10852, "ĠCorpor": 10853, "Ġjoined": 10854, "ĠJose": 10855, "ĠCup": 10856, "uns": 10857, "estival": 10858, "levision": 10859, "Ġbroken": 10860, "Ġmarriage": 10861, "ĠWestern": 10862, "Ġrepresents": 10863, "ĠTitle": 10864, "Ġss": 10865, ".Ass": 10866, "ongoose": 10867, "iento": 10868, "<>();Ċ": 10869, "Ġabsolutely": 10870, "Ġsmooth": 10871, "TERN": 10872, "ĠUnless": 10873, "Word": 10874, "Ġmerge": 10875, "igan": 10876, "ĠVol": 10877, "Ġnn": 10878, ".getId": 10879, "ĠÐ·": 10880, "Ġsexy": 10881, "Ġseeking": 10882, "Single": 10883, ".this": 10884, "Ġkom": 10885, "bound": 10886, ";\"": 10887, "ĠfontSize": 10888, "_df": 10889, "Ġinjury": 10890, "(H": 10891, "Ġissued": 10892, "_END": 10893, ":self": 10894, "Ġpatch": 10895, "Ġleaves": 10896, "Ġadopt": 10897, "FileName": 10898, "ãĢĲ": 10899, "Ġexecutive": 10900, "ĠByte": 10901, "]))Ċ": 10902, "Ġnu": 10903, "outing": 10904, "cluding": 10905, "-R": 10906, ".options": 10907, "Ġsubstant": 10908, "avax": 10909, "ĠBUT": 10910, "Ġtechnical": 10911, "Ġtwice": 10912, "ĠmÃ¡s": 10913, "Ġunivers": 10914, "yr": 10915, "Ġdrag": 10916, "ĠDC": 10917, "Ġsed": 10918, "Ġbot": 10919, "ĠPal": 10920, "ĠHall": 10921, "forcement": 10922, "Ġauch": 10923, ".mod": 10924, "notation": 10925, "_files": 10926, ".line": 10927, "_flag": 10928, "[name": 10929, "Ġresolution": 10930, "Ġbott": 10931, "(\"[": 10932, "ende": 10933, "(arr": 10934, "Free": 10935, "(@\"": 10936, "ĠDistrict": 10937, "PEC": 10938, ":-": 10939, "Picker": 10940, "ĠJo": 10941, "ĠĠĠĠĠĊ": 10942, "ĠRiver": 10943, "_rows": 10944, "Ġhelpful": 10945, "Ġmassive": 10946, "---Ċ": 10947, "Ġmeasures": 10948, "ĠRuntime": 10949, "Ġworry": 10950, "ĠSpec": 10951, "ĉD": 10952, "ãĢĳ": 10953, "Ġ){Ċ": 10954, "Ġworse": 10955, "(filename": 10956, "Ġlay": 10957, "Ġmagic": 10958, "ĠTheir": 10959, "oul": 10960, "stroy": 10961, "ĠWhere": 10962, "Ġsudden": 10963, "Ġdefe": 10964, "Ġbinding": 10965, "Ġflight": 10966, "ĠOnInit": 10967, "ĠWomen": 10968, "ĠPolicy": 10969, "Ġdrugs": 10970, "ishing": 10971, "('../": 10972, "ĠMel": 10973, "peat": 10974, "tor": 10975, "Ġproposed": 10976, "Ġstated": 10977, "_RES": 10978, "Ġeast": 10979, "ĠCONDITION": 10980, "_desc": 10981, "Ġwinning": 10982, "folio": 10983, "Mapper": 10984, "ĠPan": 10985, "ĠAnge": 10986, ".servlet": 10987, "Ġcopies": 10988, "LM": 10989, "Ġvm": 10990, "åį": 10991, "Ġdictionary": 10992, "Seg": 10993, "elines": 10994, "ĠSend": 10995, "Ġiron": 10996, "ĠFort": 10997, ".domain": 10998, "Ġdebate": 10999, "NotNull": 11000, "eq": 11001, "acher": 11002, "lf": 11003, "ĉfmt": 11004, "Ġlawy": 11005, "ÄŁ": 11006, "ĠMen": 11007, "Ġtrim": 11008, "(NULL": 11009, "Ġ!!": 11010, "Ġpad": 11011, "Ġfollows": 11012, "\"][\"": 11013, "requ": 11014, "ĠEp": 11015, ".github": 11016, "(img": 11017, "eto": 11018, "('\\": 11019, "Services": 11020, "umbnail": 11021, "_main": 11022, "pleted": 11023, "fortunately": 11024, "Ġwindows": 11025, "Ġplane": 11026, "ĠConnection": 11027, ".local": 11028, "uard": 11029, "}\\": 11030, "==\"": 11031, "andon": 11032, "ĠRoy": 11033, "west": 11034, "iginal": 11035, "emies": 11036, "itz": 11037, "'):Ċ": 11038, "ĠPeter": 11039, "Ġtough": 11040, "Ġreduced": 11041, "Ġcalculate": 11042, "Ġrapid": 11043, "customer": 11044, "Ġefficient": 11045, "Ġmedium": 11046, "Ġfell": 11047, ".ref": 11048, "ĠCas": 11049, "Ġfeedback": 11050, "Speed": 11051, "(output": 11052, "aje": 11053, "Ġcategories": 11054, "Ġfee": 11055, "};": 11056, "Ġdeleted": 11057, "reh": 11058, "Ġproof": 11059, "Desc": 11060, "Build": 11061, "Ġsides": 11062, ".ArrayList": 11063, "-%": 11064, "ĠĠĠĠĠĠĠĠĠĠĠĠĠĠĠĠĠĠĠĠĠĠĠĠĠĠĠĠĠĠĠĠĠĠĠĠĠĠ": 11065, "Ø±": 11066, ".match": 11067, "Ð»Ð¸": 11068, "Ġfeels": 11069, "Ġachieve": 11070, "Ġclim": 11071, "_ON": 11072, "ĠCD": 11073, "Ġteacher": 11074, "_current": 11075, "bn": 11076, "_PL": 11077, "isting": 11078, "Enable": 11079, "GEN": 11080, "Ġtv": 11081, "Ġsock": 11082, "Ġplays": 11083, "Ġdiscount": 11084, "ĠKE": 11085, "ĠDebug": 11086, "Fore": 11087, "ĠIraq": 11088, "Ġappearance": 11089, "Mon": 11090, "Ġstyled": 11091, "ĠHuman": 11092, "iot": 11093, "ĠHistory": 11094, "Ġsac": 11095, "ĠCollection": 11096, "Ġrecommended": 11097, ".Selected": 11098, "Ġorganizations": 11099, "Ġdiscovered": 11100, "cohol": 11101, "adas": 11102, "ĠThomas": 11103, "May": 11104, "Ġconserv": 11105, "Ġdomin": 11106, "ĠFollow": 11107, "ĠSection": 11108, "ĠThanks": 11109, "Username": 11110, "Ġrecipe": 11111, "Ġwonderful": 11112, ".sleep": 11113, "_if": 11114, "ĉĊĉĊ": 11115, "orno": 11116, "Ġru": 11117, "_target": 11118, ".\"\"": 11119, "à¦": 11120, "EventArgs": 11121, "Ġinputs": 11122, "Ġfif": 11123, "Ġvision": 11124, "cy": 11125, "ĠSeries": 11126, ")(((": 11127, "Ġtrading": 11128, "Ġmarker": 11129, "Begin": 11130, "Ġtypically": 11131, "Ġcauses": 11132, "dropdown": 11133, "_DEBUG": 11134, "Ġdetect": 11135, "country": 11136, "!\");Ċ": 11137, "ĉR": 11138, "appy": 11139, "Ġcref": 11140, "('<": 11141, "\"=>": 11142, "ĠLE": 11143, "reader": 11144, "Ġadministr": 11145, "Ãµ": 11146, "ucket": 11147, "Ġfashion": 11148, ".char": 11149, "izar": 11150, "Ġdisable": 11151, "Ġsuc": 11152, "ĠLive": 11153, "issue": 11154, "Ġmetadata": 11155, "flags": 11156, "ĠðŁ": 11157, "Ġcommitted": 11158, "Ġva": 11159, "Ġrough": 11160, "Ġ'''Ċ": 11161, "Ġhighlight": 11162, "_vars": 11163, "VO": 11164, "Ġencoding": 11165, "-Z": 11166, "_sign": 11167, "$(\"#": 11168, "Ġrain": 11169, "reatest": 11170, "ĠEND": 11171, "Selection": 11172, "Ġcandidates": 11173, "Ġsav": 11174, ".Empty": 11175, "Ġdecisions": 11176, "Ġcollabor": 11177, "ridge": 11178, "feed": 11179, "ression": 11180, "Ġpersons": 11181, "VM": 11182, "ega": 11183, "_BIT": 11184, "According": 11185, "acked": 11186, "Ġdollars": 11187, "_loss": 11188, "ĠCost": 11189, "}\"Ċ": 11190, "Notification": 11191, "Ġprostit": 11192, "Ġauthority": 11193, ".rec": 11194, "Ġspokes": 11195, "ĠToday": 11196, "istant": 11197, "ĠHead": 11198, "âĢĿ.": 11199, "ertainment": 11200, "cean": 11201, "culate": 11202, "Ġven": 11203, "However": 11204, "_arr": 11205, "Ġtokens": 11206, "Graph": 11207, "ĠJud": 11208, "ĠVirgin": 11209, "ĠSerial": 11210, "unning": 11211, "Mutable": 11212, "agers": 11213, ".csv": 11214, "Ġdeveloping": 11215, "Ġinstructions": 11216, "Ġpromise": 11217, "Ġrequested": 11218, "_encode": 11219, "/\"": 11220, "ĠIcon": 11221, "uilt": 11222, "-day": 11223, "Ġintelligence": 11224, ".IS": 11225, "ĠObservable": 11226, "ĠHard": 11227, "Bool": 11228, "idential": 11229, ".Anchor": 11230, "Ġselling": 11231, "CI": 11232, "AGES": 11233, "tle": 11234, "bur": 11235, "UFFER": 11236, "RY": 11237, "Ġbigger": 11238, "Ġrat": 11239, "Ġfamous": 11240, "Ġtypename": 11241, "Ġexplained": 11242, "}}Ċ": 11243, "Ġnuclear": 11244, "-N": 11245, "Ġcrisis": 11246, "ĠEnter": 11247, "Ġanswers": 11248, "/${": 11249, "/pl": 11250, "Ġsequ": 11251, "_next": 11252, "mask": 11253, "Ġstanding": 11254, "Ġplenty": 11255, "ĠCross": 11256, "ĉret": 11257, "dro": 11258, "ĠCast": 11259, "=true": 11260, "ĠChris": 11261, "icio": 11262, "ĠMike": 11263, "Decimal": 11264, "addComponent": 11265, "Len": 11266, "Ġcock": 11267, "Ġ#{": 11268, "URN": 11269, "<tr": 11270, "Ġauthorities": 11271, "Resources": 11272, "-H": 11273, "Bottom": 11274, "_qu": 11275, "puter": 11276, "esterday": 11277, "Dispatch": 11278, "since": 11279, "Ġfamiliar": 11280, ",i": 11281, "VC": 11282, "Ġment": 11283, ",C": 11284, "Ġfreedom": 11285, "Ġroutes": 11286, "ĠBuy": 11287, "Ġcommands": 11288, "Ġmesh": 11289, "/C": 11290, "ĠSettings": 11291, "-style": 11292, "Ġwitness": 11293, "Ġcle": 11294, "Ġunion": 11295, "efault": 11296, "aret": 11297, "Ġthoughts": 11298, "Ġ----": 11299, "_process": 11300, "_us": 11301, "ingly": 11302, "UES": 11303, "Touch": 11304, "ĠÐ¼": 11305, "_open": 11306, "ĠVec": 11307, "Ġreward": 11308, ".Click": 11309, "/:": 11310, "Ġnie": 11311, "Changes": 11312, "Month": 11313, "ï¼Ł": 11314, "Ġexecution": 11315, "Ġbeach": 11316, "(Integer": 11317, "ĉa": 11318, "/'": 11319, ".FontStyle": 11320, "Ġabort": 11321, "ĠSingle": 11322, "(isset": 11323, "Ġdp": 11324, "Ġ}}</": 11325, "ĠMa": 11326, ".Rows": 11327, "ĠPet": 11328, "%)": 11329, "rand": 11330, "éĢ": 11331, "Rule": 11332, "Ġhel": 11333, "RITE": 11334, "Ġquiet": 11335, "Ġratio": 11336, "ĠCONDITIONS": 11337, "osoph": 11338, "ĠIL": 11339, "Ġadvent": 11340, "cap": 11341, ";</": 11342, "ĠUSB": 11343, "Driver": 11344, "Ġours": 11345, "ĠJohnson": 11346, ".K": 11347, "_delete": 11348, ".q": 11349, "ĉstr": 11350, "/common": 11351, "ĉstring": 11352, "ĠPDF": 11353, "acts": 11354, ".Action": 11355, "ĠQuery": 11356, ".response": 11357, "ĠGirl": 11358, "Ġprocesses": 11359, "<Integer": 11360, "imo": 11361, "Ġadds": 11362, "Ġentirely": 11363, "Ġwash": 11364, "/************************************************************************": 11365, "Ġanimated": 11366, "Ġprofit": 11367, "encing": 11368, "/S": 11369, "ĠSym": 11370, "Ġmanual": 11371, "Download": 11372, "Ġ(!$": 11373, "Ġmotion": 11374, "webpack": 11375, "-bottom": 11376, "Ġgratuit": 11377, "PG": 11378, "(:,": 11379, "Ġera": 11380, "Ġho": 11381, "ĠJim": 11382, "quir": 11383, "ĠBASIS": 11384, "Ã¡n": 11385, "DER": 11386, "Ġexpensive": 11387, "_co": 11388, "Bounds": 11389, "Well": 11390, "ĠDemocratic": 11391, "ĠâĨĴ": 11392, ".Rem": 11393, "_SY": 11394, "names": 11395, "ĠVi": 11396, "Ġisinstance": 11397, "\\\">": 11398, "Ġ*=": 11399, "ĠPS": 11400, "Ġdangerous": 11401, "[p": 11402, "OME": 11403, "Other": 11404, "ĠStringBuilder": 11405, "Points": 11406, "heading": 11407, "Ġcurrency": 11408, "Ġpercentage": 11409, "_API": 11410, "Ġclassic": 11411, "thead": 11412, "ĠMO": 11413, "FE": 11414, "Idx": 11415, "await": 11416, "ĠÃ¨": 11417, "Ġaccident": 11418, "Ġvariant": 11419, "Ġmyst": 11420, "ĠLand": 11421, "ĠBre": 11422, "Ġharm": 11423, "ĠAcc": 11424, "Ġcharged": 11425, "iones": 11426, "Visibility": 11427, "arry": 11428, "ĠLanguage": 11429, "Ġwalking": 11430, "\".ĊĊ": 11431, "ifer": 11432, "Ġleadership": 11433, ".From": 11434, "ynam": 11435, "Ġtimestamp": 11436, "ipt": 11437, "ĠHas": 11438, "REFER": 11439, "ĠIts": 11440, "Ġlistener": 11441, "UTE": 11442, "_description": 11443, "Ġexperiences": 11444, "Ġcreates": 11445, "RS": 11446, "cart": 11447, "black": 11448, "Ġchoices": 11449, "war": 11450, "Ġ'''": 11451, "Ġordered": 11452, "Ġevening": 11453, "Ġpil": 11454, "Ġtun": 11455, "ĠBad": 11456, "(app": 11457, "random": 11458, "Ġexplicit": 11459, "Ġarrived": 11460, "Ġfly": 11461, "Ġeconom": 11462, "-mail": 11463, "Ġlists": 11464, "Ġarchitect": 11465, "ĠPay": 11466, "Ġds": 11467, "ĠSol": 11468, "Ġvehicles": 11469, "Hz": 11470, "-com": 11471, "Ġking": 11472, "_equal": 11473, "ĠHelp": 11474, "Ġabuse": 11475, "--;Ċ": 11476, "Ġextr": 11477, "Ġchemical": 11478, "ä¿": 11479, "Ġorient": 11480, "Ġbreath": 11481, "ĠSpace": 11482, "(element": 11483, "wait": 11484, "DED": 11485, "igma": 11486, "Ġentr": 11487, "Ġsob": 11488, "-name": 11489, "Ġaffected": 11490, "ika": 11491, "Ġcoal": 11492, "_work": 11493, "Ġhundreds": 11494, "Ġpolitics": 11495, "subject": 11496, "Ġconsumer": 11497, "ANGE": 11498, "Ġrepeated": 11499, "Send": 11500, "Ġ#[": 11501, "Ġprotocol": 11502, "Ġleads": 11503, "useum": 11504, "Every": 11505, "Import": 11506, "(count": 11507, "Ġchallenges": 11508, "Ġnovel": 11509, "Ġdepart": 11510, "bits": 11511, ".Current": 11512, "Ġ`${": 11513, "oting": 11514, "(\\": 11515, "Ġcreative": 11516, "Ġbuff": 11517, "Ġintroduced": 11518, "usic": 11519, "modules": 11520, "Are": 11521, "-doc": 11522, "language": 11523, "_cache": 11524, "Ġtod": 11525, "?></": 11526, "omething": 11527, "Ġhun": 11528, "åº": 11529, "aters": 11530, "Intent": 11531, "Ġimplemented": 11532, "ĠCase": 11533, "Children": 11534, "Ġnotification": 11535, "Renderer": 11536, "Wrapper": 11537, "Objects": 11538, "tl": 11539, ".Contains": 11540, "Plugin": 11541, ".row": 11542, "Ġforg": 11543, "Ġpermit": 11544, "Ġtargets": 11545, "ĠIF": 11546, "Ġtip": 11547, "sex": 11548, "Ġsupports": 11549, "Ġfold": 11550, "photo": 11551, "},čĊ": 11552, "Ġgoogle": 11553, "$('#": 11554, "Ġsharing": 11555, "Ġgoods": 11556, "vs": 11557, "ĠDan": 11558, "Rate": 11559, "ĠMartin": 11560, "Ġmanner": 11561, "lie": 11562, ".The": 11563, "Internal": 11564, "ĠCONTR": 11565, "Mock": 11566, "RIGHT": 11567, "Ġ'{": 11568, "Ġcontrols": 11569, "Mat": 11570, "Ġmand": 11571, "Ġextended": 11572, "Ok": 11573, "Ġembed": 11574, "Ġplanet": 11575, "ĠNon": 11576, "-ch": 11577, ")\",": 11578, "epar": 11579, "Ġbelieved": 11580, "ĠEnvironment": 11581, "ĠFriend": 11582, "-res": 11583, "Ġhandling": 11584, "nic": 11585, "-level": 11586, "scri": 11587, "Xml": 11588, "BE": 11589, "ungen": 11590, "Ġalter": 11591, "[idx": 11592, "Pop": 11593, "cam": 11594, "Ġ(((": 11595, "Ġshipping": 11596, "Ġbattery": 11597, "iddleware": 11598, "MC": 11599, "Ġimpl": 11600, "otation": 11601, "ĠLab": 11602, "<form": 11603, "ĉname": 11604, "ĠGames": 11605, "ray": 11606, "Extra": 11607, "Two": 11608, "(player": 11609, "ĠLes": 11610, "Â°": 11611, "Ġcharset": 11612, "Ġjourney": 11613, "eting": 11614, "æĺ": 11615, "âĶ": 11616, "Ġdin": 11617, "Ġperman": 11618, "Ġsolve": 11619, "Ġlaunched": 11620, "Ġnine": 11621, "Ġsending": 11622, "Ġtelling": 11623, ".password": 11624, "ĠMatrix": 11625, "eric": 11626, "Ġgrab": 11627, ".u": 11628, "ĠLibrary": 11629, "Ġdebt": 11630, "INK": 11631, ".findViewById": 11632, "Ġfrequency": 11633, ".ad": 11634, "_TEST": 11635, "Ġnegot": 11636, "ĠAfrican": 11637, "sender": 11638, "Å¡": 11639, "Global": 11640, "Ġexperts": 11641, "++)čĊ": 11642, "Ġdepending": 11643, "gray": 11644, "Ġjudge": 11645, "Ġsentence": 11646, "losure": 11647, "Ac": 11648, "Ġtrace": 11649, "Edge": 11650, "Ġfriendly": 11651, "Ġconcerned": 11652, "blog": 11653, "Ġclaimed": 11654, "}'": 11655, "integer": 11656, "_tree": 11657, "ĉcontinue": 11658, "xi": 11659, "Ġaccepted": 11660, "_one": 11661, "ĠEducation": 11662, "ublished": 11663, "gon": 11664, "appoint": 11665, "outs": 11666, "Ġmining": 11667, "Ġsongs": 11668, "Ġherself": 11669, "Ġgranted": 11670, "Ġpassion": 11671, "ĠLake": 11672, "Ġloan": 11673, "uent": 11674, "chant": 11675, "Ġdetailed": 11676, "except": 11677, "_cmd": 11678, "ĠHE": 11679, "Related": 11680, "zt": 11681, "'},Ċ": 11682, "Ġspecifically": 11683, "Static": 11684, "Ġcarried": 11685, "ANS": 11686, "\\\":": 11687, "Created": 11688, "Ġcul": 11689, "]-": 11690, "_api": 11691, "FP": 11692, "Ġsitting": 11693, "Ġ\"\")": 11694, "ĉgoto": 11695, "ĠEqu": 11696, "Ġassault": 11697, "kins": 11698, "ancer": 11699, "ogen": 11700, "Ġvoters": 11701, "ĠProt": 11702, "Descriptor": 11703, "ãĥ¼": 11704, ".Assert": 11705, "bsites": 11706, "oster": 11707, "-menu": 11708, "Ġarms": 11709, ".Client": 11710, ".background": 11711, "avity": 11712, "Ġvul": 11713, "_MASK": 11714, "Ġhousing": 11715, "Ġbear": 11716, "_iter": 11717, "pired": 11718, "Ġmarkets": 11719, "ĠStudent": 11720, "Ġticket": 11721, "Ġmillions": 11722, "flater": 11723, ")=": 11724, "Ġrecover": 11725, "ĠForce": 11726, "ĠBoth": 11727, "Ġvictim": 11728, "ĠDisc": 11729, "report": 11730, "Ġfourth": 11731, "ĠAssembly": 11732, "/user": 11733, "NullOr": 11734, "textarea": 11735, "Ġath": 11736, "Ġ([": 11737, "Ġchannels": 11738, "ĠJustice": 11739, "choice": 11740, "LOBAL": 11741, "exec": 11742, "emale": 11743, "Ġelem": 11744, "_le": 11745, "Ġresponsibility": 11746, "ĠTw": 11747, "ICATION": 11748, "Ġelseif": 11749, "Ġfo": 11750, "asts": 11751, "Ġtreated": 11752, "sen": 11753, "ĠVict": 11754, "sumer": 11755, "_BASE": 11756, "Ġast": 11757, ">{{": 11758, "ĠResource": 11759, "ĠStandard": 11760, "ĠPrem": 11761, "updated": 11762, "ivalent": 11763, "Ġassets": 11764, "_temp": 11765, "Ġinterests": 11766, "Ġhardware": 11767, "ĠRom": 11768, "ĠShare": 11769, "Ġ''Ċ": 11770, "Ġ*,": 11771, "ĠTake": 11772, "ĠImages": 11773, "_CHECK": 11774, "(typeof": 11775, "ĠJun": 11776, "\\<^": 11777, "Ġliqu": 11778, "Ġworst": 11779, "ymbols": 11780, "ĉĉĉĠĠĠ": 11781, "Ġdrivers": 11782, "ĠDocument": 11783, "eno": 11784, "ĠTechnology": 11785, "Ġapproved": 11786, "umps": 11787, "Ġsnow": 11788, "formance": 11789, "_ASSERT": 11790, "uits": 11791, "ÙĨ": 11792, "Ġdifferences": 11793, ".Visible": 11794, "ĉĉĉčĊ": 11795, "ĠPs": 11796, "_fetch": 11797, "Ġtodo": 11798, ".',Ċ": 11799, "Ġsel": 11800, "urers": 11801, "invalid": 11802, "Ġtweet": 11803, "VEL": 11804, "Ġresearchers": 11805, "Ġsprintf": 11806, "ĠRO": 11807, "Ġpel": 11808, ".Trans": 11809, "Ġillegal": 11810, "dialog": 11811, "smarty": 11812, "lg": 11813, "_MIN": 11814, "Ġhero": 11815, "final": 11816, "Ġpp": 11817, ".Le": 11818, "Ġci": 11819, "ĉRT": 11820, "Ġsuggested": 11821, "pdf": 11822, "aching": 11823, "ĠRo": 11824, "ĠProperties": 11825, "ĠSi": 11826, "Ġbuying": 11827, "Ġmu": 11828, "Ġlands": 11829, "ifiers": 11830, "ĠFILE": 11831, "ROUP": 11832, "Ġholder": 11833, "ĠSon": 11834, "Ġsympt": 11835, ".route": 11836, ")?": 11837, "Ġargc": 11838, "Ġfort": 11839, "Ġcasino": 11840, "_category": 11841, "Ġforum": 11842, "prefix": 11843, "apture": 11844, "Tube": 11845, "ems": 11846, "imize": 11847, "Ġnue": 11848, "aus": 11849, "course": 11850, "ATOR": 11851, "()),": 11852, "Advertis": 11853, "INGS": 11854, "Ġacknow": 11855, "ĠKorea": 11856, "pling": 11857, "Ġworker": 11858, "PLIED": 11859, "hal": 11860, "ĠRichard": 11861, "Elements": 11862, "ĉĉĉĠ": 11863, "star": 11864, "Ġrelationships": 11865, "Ġcheap": 11866, "ACH": 11867, "ĠXML": 11868, ",&": 11869, "ĠLouis": 11870, "Ġride": 11871, "_FAIL": 11872, "Ġchunk": 11873, "[s": 11874, "_OUT": 11875, "Ġchosen": 11876, "_[": 11877, "/(": 11878, "ĠJeff": 11879, "_sl": 11880, "priv": 11881, "ĠCanadian": 11882, "Ġunable": 11883, "_FLAG": 11884, "Ġnos": 11885, "high": 11886, "Ġlift": 11887, "fun": 11888, "(){": 11889, "elly": 11890, "yclerView": 11891, "_as": 11892, "_LIST": 11893, "Ġradi": 11894, ".getValue": 11895, "ĠAngeles": 11896, "ĠSpan": 11897, "_instance": 11898, "itors": 11899, "Ġmigration": 11900, "AK": 11901, "Oh": 11902, "Â®": 11903, ".selected": 11904, "ĠGT": 11905, "Ġadvance": 11906, "ĠStyle": 11907, ".DataGridView": 11908, "ection": 11909, "Ñİ": 11910, "pio": 11911, "rog": 11912, "Ġshopping": 11913, "ĠRect": 11914, "Illuminate": 11915, "OU": 11916, "ĉarray": 11917, "Ġsubstantial": 11918, "Ġpregn": 11919, "Ġpromote": 11920, "IEW": 11921, ".Layout": 11922, "Ġsigns": 11923, "/.": 11924, "Ġletters": 11925, "Board": 11926, "ctrl": 11927, "\"\\": 11928, "ĠJones": 11929, "Ġvertex": 11930, "Ġja": 11931, "Ġaffili": 11932, "Ġwealth": 11933, "ĉdefault": 11934, "Ġsignificantly": 11935, "Ġec": 11936, "Ġxs": 11937, "actual": 11938, ".per": 11939, "_step": 11940, "anvas": 11941, "mac": 11942, "Ġtransl": 11943, "ĠĠĠĠĠĠĠĠĠĠĠĠĠĠĠĠĠĠĠĠĠĠĠĠĠĠĠĠĠĠĠĠĠĠĠĠĠĠĠĠĠĠĠĠĠĠĠĠĠĠĠĠĠĠĠĠĠĠĠ": 11944, "Iterator": 11945, "Ġoch": 11946, "agnostic": 11947, "ĠDuring": 11948, "ĠDEFAULT": 11949, "Ġtill": 11950, "Ġsignature": 11951, "Ġbird": 11952, "ĠOl": 11953, "ĠIr": 11954, "HS": 11955, "avatar": 11956, "ESSAGE": 11957, "Ġelev": 11958, "Ġmt": 11959, "ĠNav": 11960, "Ġrelax": 11961, "Ġplate": 11962, "ITEM": 11963, "(date": 11964, ".not": 11965, "Ġgrade": 11966, "Ġ}),Ċ": 11967, "?\"ĊĊ": 11968, "iences": 11969, "High": 11970, "ĠDIS": 11971, "disabled": 11972, "QUI": 11973, "Ġnoise": 11974, "aux": 11975, "ĠUP": 11976, "osa": 11977, "Ġvoc": 11978, "Ġ))": 11979, "ocom": 11980, "_OFF": 11981, "ĠDb": 11982, "Lock": 11983, ".eclipse": 11984, ",d": 11985, "ĠDraw": 11986, "Ġ\"(": 11987, "Ġvisited": 11988, "ĠâĪ": 11989, "Ġsucceed": 11990, "Ġimpossible": 11991, "aire": 11992, "ĠTurn": 11993, "Ġdish": 11994, "FG": 11995, "Ġsensor": 11996, "ANN": 11997, "aba": 11998, "Ġsurg": 11999, "]);čĊ": 12000, "Ġfp": 12001, "_an": 12002, "-J": 12003, "-G": 12004, "ĠJob": 12005, "Convert": 12006, "ĠKEY": 12007, "Ġauthors": 12008, "_server": 12009, "\\r": 12010, "Ġ-*-": 12011, "flex": 12012, "Ġsoc": 12013, "Ret": 12014, "Ġsalt": 12015, "ĠâĢ¦ĊĊ": 12016, "ĠClear": 12017, "(page": 12018, "-danger": 12019, "Ġrooms": 12020, "conv": 12021, "#{": 12022, ".op": 12023, "ĠArea": 12024, "_SC": 12025, "hen": 12026, "Ġbegins": 12027, "-y": 12028, "Ġexcited": 12029, "Ġignored": 12030, "Ġbonus": 12031, "student": 12032, "ĠMember": 12033, "Ġrelatively": 12034, "ĠLow": 12035, "ĠProdu": 12036, "ateway": 12037, "posure": 12038, "Ġthick": 12039, "aniel": 12040, "(view": 12041, "ĠCrush": 12042, "Extension": 12043, "Il": 12044, "eed": 12045, "LOC": 12046, ".im": 12047, ".Items": 12048, "Ġconflict": 12049, ".prevent": 12050, "ĠonCreate": 12051, "uv": 12052, "iser": 12053, "Ġwave": 12054, "Mar": 12055, "ĠCommunity": 12056, "iche": 12057, "ĠNothing": 12058, "[m": 12059, "ĠLee": 12060, "riends": 12061, "Ã¨re": 12062, "!!!": 12063, "anz": 12064, ".result": 12065, "ĠSK": 12066, "_PARAM": 12067, "Ġdemocr": 12068, "BackColor": 12069, ".exists": 12070, "\"It": 12071, "(options": 12072, "razy": 12073, "aser": 12074, "\\Database": 12075, "alendar": 12076, "_ass": 12077, ";}Ċ": 12078, "vertex": 12079, "inecraft": 12080, "Warning": 12081, "argo": 12082, "Ġactor": 12083, "ĠInstead": 12084, "ĠUsing": 12085, "Self": 12086, "@interface": 12087, "Ġspeaking": 12088, "ĠParis": 12089, "ĠLICENSE": 12090, ".node": 12091, "ĠFood": 12092, "EIF": 12093, "ĠBi": 12094, ".Start": 12095, "ĠIB": 12096, "Ġuniversity": 12097, "ĠHeader": 12098, ".product": 12099, "Copy": 12100, "etc": 12101, "rical": 12102, "Ġ>>>": 12103, "books": 12104, "Ġalgorithm": 12105, "Ġ'__": 12106, "(javax": 12107, "Ġnumerous": 12108, "Share": 12109, "Have": 12110, "Ġrecru": 12111, "Ġprove": 12112, ".substring": 12113, "health": 12114, "ÐµÐ»": 12115, "Ġdecimal": 12116, "Ġcommission": 12117, "scription": 12118, "xC": 12119, "Ġsummary": 12120, "atted": 12121, "Ġcloser": 12122, "finished": 12123, "()){Ċ": 12124, "ĠWood": 12125, "_fields": 12126, "ku": 12127, "_items": 12128, "Flag": 12129, "Ġconfidence": 12130, "ĠFederal": 12131, "dux": 12132, "Ġcompat": 12133, "Ġvertical": 12134, "Ð¹": 12135, "Ã¨s": 12136, ";\">Ċ": 12137, "_manager": 12138, "()))Ċ": 12139, "IDE": 12140, ":\",": 12141, "__Ċ": 12142, "ĠWay": 12143, "ÑĪ": 12144, "Temp": 12145, "ĠSTR": 12146, "ritten": 12147, "Sync": 12148, "ĠAV": 12149, "ĠCEO": 12150, "ĠGuid": 12151, "Ġenvironmental": 12152, "Ġcorresponding": 12153, "ĉconsole": 12154, "Ġjustice": 12155, "ĠJS": 12156, "Ġlived": 12157, "gar": 12158, "ĠGraph": 12159, "ĠStat": 12160, "ĠiPhone": 12161, ".al": 12162, "ĠHD": 12163, "Ġoccur": 12164, "Ġthreshold": 12165, "Ġonclick": 12166, "REG": 12167, ".GraphicsUnit": 12168, "Meta": 12169, "Å¾": 12170, "Ġcum": 12171, ".gnu": 12172, "Ã«": 12173, "Ġobtained": 12174, "Ġcomplaint": 12175, "Ġeating": 12176, "Ġtar": 12177, "_task": 12178, "Ġopts": 12179, "(to": 12180, "Pass": 12181, "Ġplastic": 12182, "tility": 12183, "ĠWin": 12184, ".preventDefault": 12185, "pile": 12186, "ĠGar": 12187, "Ġquantity": 12188, "_last": 12189, "Ġgreatest": 12190, "Dao": 12191, "_DIS": 12192, "ĠUsed": 12193, "ĠHP": 12194, "riting": 12195, "SION": 12196, "blue": 12197, "domain": 12198, "Ġscores": 12199, "Normal": 12200, "_admin": 12201, "ĠASSERT": 12202, "Then": 12203, "***": 12204, "dist": 12205, "lon": 12206, "Ġhate": 12207, "shal": 12208, "ImageView": 12209, "database": 12210, "Ġpand": 12211, "Ġlogic": 12212, "=false": 12213, "bg": 12214, "ĠConfiguration": 12215, "Ġnur": 12216, "OG": 12217, "Ġmarried": 12218, ":+": 12219, "Ġdropped": 12220, "Ġregistration": 12221, "Ð¾Ð¼": 12222, "ultiple": 12223, "izers": 12224, "shape": 12225, ".copy": 12226, "Ġwearing": 12227, "ĠCath": 12228, "Ġdedicated": 12229, "Ġ...Ċ": 12230, "Ġadvoc": 12231, "ĠFamily": 12232, "Ġstatements": 12233, "ematic": 12234, "ampionship": 12235, "Ġmotiv": 12236, "ĠHave": 12237, "Ġblow": 12238, "Job": 12239, "cert": 12240, "_vector": 12241, "install": 12242, "ĠCOPY": 12243, "embed": 12244, "DIR": 12245, "ĠSpring": 12246, "Ġexhib": 12247, "cdn": 12248, "ĠComment": 12249, "ĠOptional": 12250, ".player": 12251, "ĠDark": 12252, "(pos": 12253, "ĠShould": 12254, "Ġcentre": 12255, "ĠGuard": 12256, "Ã³w": 12257, "Ġtrouble": 12258, "ENER": 12259, "(unsigned": 12260, "_service": 12261, "Ġns": 12262, "uling": 12263, "ĠMexico": 12264, "ĠNY": 12265, "mysql": 12266, "Ġlic": 12267, "åľ": 12268, "Mr": 12269, "-fl": 12270, "ĠCustomer": 12271, "idi": 12272, "Ġ?>ĊĊ": 12273, "rible": 12274, "ĠÐ¿ÑĢ": 12275, "Ġsizes": 12276, "_STRING": 12277, "validation": 12278, "ĠJon": 12279, "(Http": 12280, "addClass": 12281, "Nodes": 12282, "Ġfragment": 12283, "Ġspoke": 12284, "Ġwaste": 12285, "Join": 12286, "Ġillustr": 12287, "eli": 12288, "cient": 12289, "Ġaid": 12290, "Ġprosec": 12291, "'){Ċ": 12292, "Ġpassing": 12293, "Ġfaces": 12294, "Shape": 12295, "_Z": 12296, "iti": 12297, "Ġalle": 12298, "Ġrobot": 12299, "ĠĠĠĠĠĠĠĊ": 12300, "ĠSpe": 12301, "Ġreceiving": 12302, "ĠDetails": 12303, "Ġ\")": 12304, "mg": 12305, "_REF": 12306, "Ġcomparison": 12307, "*,": 12308, "ĠFound": 12309, "_session": 12310, "(U": 12311, "/F": 12312, "Ġxxx": 12313, "Network": 12314, "ders": 12315, "Ġcapture": 12316, "Ġcorre": 12317, "ĠLtd": 12318, "ĠAdv": 12319, "[@": 12320, "Ġclip": 12321, "Mill": 12322, "ĠProfile": 12323, "Ġendif": 12324, "Ġoblig": 12325, "describe": 12326, ".element": 12327, "riterion": 12328, "LD": 12329, "ered": 12330, "Ġfavour": 12331, "score": 12332, "ĠFilter": 12333, "attributes": 12334, "Ġchecks": 12335, "Inflater": 12336, "ĠPlus": 12337, "Ġscientific": 12338, "Ġprivacy": 12339, "Head": 12340, "Ġfeat": 12341, "Ġdegrees": 12342, "ĠPale": 12343, ";\">": 12344, "Ġfilms": 12345, "ĠAudio": 12346, "ĠTag": 12347, "ĠEnergy": 12348, "itar": 12349, "parator": 12350, "Ġfellow": 12351, "Ġevt": 12352, "ĠTri": 12353, "ĠDAM": 12354, "cloud": 12355, "ĠPassword": 12356, "ĠDemocrats": 12357, "ĠAcad": 12358, "$lang": 12359, "Ġreb": 12360, "())ĊĊ": 12361, "Ð½Ñĭ": 12362, "ĠBur": 12363, "readcr": 12364, "Ġhex": 12365, "Console": 12366, "ctl": 12367, "ousel": 12368, "ĠWilliam": 12369, "Ġaz": 12370, "_PORT": 12371, "Ġpractices": 12372, "Ġanywhere": 12373, "ĠPosition": 12374, "Ġ->Ċ": 12375, "iams": 12376, ".username": 12377, "placeholder": 12378, "Ġoder": 12379, "ĠSecretary": 12380, "ĠiT": 12381, "mond": 12382, "events": 12383, "?âĢĿ": 12384, ".Sub": 12385, "Ġattached": 12386, "ĠnÃ£o": 12387, "Ġestate": 12388, ".action": 12389, "Ġfigures": 12390, "Ġ});čĊ": 12391, "Ġsubscri": 12392, ".tag": 12393, "nam": 12394, ".plot": 12395, "noon": 12396, "liament": 12397, "Character": 12398, ".tab": 12399, "Ġwinter": 12400, "ĠVariable": 12401, "Ġtrees": 12402, "Ġproud": 12403, "(V": 12404, "_load": 12405, "Ġhier": 12406, "ĠEcon": 12407, "Ġfd": 12408, "Ġvictims": 12409, "Rest": 12410, "iana": 12411, "Ġfake": 12412, ".Println": 12413, "Ġstrlen": 12414, "Ġsad": 12415, "Ġble": 12416, "Prot": 12417, "Ġbuttons": 12418, "Ġtelevision": 12419, "Ġlogo": 12420, "extension": 12421, "ĉj": 12422, "stein": 12423, "aciones": 12424, "Ġ\"\"\"ĊĊ": 12425, "Ġsimp": 12426, "Ġrecorded": 12427, "Ġbrings": 12428, "Ġprincipal": 12429, "Ġfees": 12430, "(source": 12431, "kdir": 12432, "Ġutils": 12433, "Ġcorrectly": 12434, "fil": 12435, "Ġwel": 12436, "Pair": 12437, "-button": 12438, "scale": 12439, "verify": 12440, "[c": 12441, "Ġ---": 12442, "Ġescape": 12443, "ikes": 12444, "LowerCase": 12445, "ician": 12446, "Ġchapter": 12447, "ĠTYPE": 12448, "Ġshadow": 12449, "Ġawesome": 12450, "WE": 12451, "elif": 12452, "Ġlambda": 12453, "Ġdistinct": 12454, "Ġbare": 12455, "-off": 12456, "Ġcolour": 12457, ".appendChild": 12458, "olec": 12459, "aga": 12460, ".fill": 12461, "ĉsuper": 12462, "Ġadj": 12463, "(position": 12464, ".getItem": 12465, "Short": 12466, "Ġtotally": 12467, "VD": 12468, "ĠTre": 12469, "_ep": 12470, "vements": 12471, "ĠSolution": 12472, "Ġfundament": 12473, "Follow": 12474, "Ġfacility": 12475, "Ġhappening": 12476, "OF": 12477, ".textBox": 12478, "Span": 12479, "ĠÂ«": 12480, "iden": 12481, "Ġexceed": 12482, "(parent": 12483, "Ġcp": 12484, "ç»": 12485, "Ġhasn": 12486, "Ġpri": 12487, "Ġconsequ": 12488, "nen": 12489, "ĠINTO": 12490, "Ignore": 12491, "ĠFuture": 12492, "Ġcarbon": 12493, "ĠSteel": 12494, "fmt": 12495, "okie": 12496, "Ġspl": 12497, "(title": 12498, "-info": 12499, "Ġdeals": 12500, "Ġfixture": 12501, "ea": 12502, "Div": 12503, "Ġtested": 12504, "_return": 12505, ")ĊĊĊĊ": 12506, "upported": 12507, "ĠCook": 12508, "Ġpaying": 12509, "ĠIll": 12510, "Ġarrested": 12511, "ĠPrime": 12512, "_callback": 12513, ">,Ċ": 12514, "driver": 12515, "Once": 12516, "abb": 12517, "_bytes": 12518, "ĠSets": 12519, "(Object": 12520, "Ġcc": 12521, "Ġshell": 12522, "alo": 12523, ");//": 12524, "(log": 12525, "ctors": 12526, ")</": 12527, "Ġneighborhood": 12528, "ailability": 12529, "vol": 12530, "Ġyouth": 12531, "Ġtechniques": 12532, "ĠSchema": 12533, "uh": 12534, "mente": 12535, "Ġrepository": 12536, "imm": 12537, "Ġcookie": 12538, "JS": 12539, "ovies": 12540, ":{": 12541, "Complete": 12542, "Since": 12543, "Ġlaugh": 12544, "_BO": 12545, "enable": 12546, "ĠDoes": 12547, "ĠWalk": 12548, "what": 12549, "kes": 12550, "Ġmultip": 12551, "iments": 12552, "eur": 12553, "Ġvictory": 12554, "Generator": 12555, "ĠMos": 12556, "rovers": 12557, "Ġcompute": 12558, "Ġproviders": 12559, "ĠMedic": 12560, "LP": 12561, "_CONFIG": 12562, "Ġveter": 12563, "sters": 12564, "_window": 12565, "umeric": 12566, "ĉĉĉĉĉĊ": 12567, ".Response": 12568, "Ġreplaced": 12569, ".root": 12570, "-free": 12571, "-container": 12572, "Ġmatching": 12573, "ĠEditor": 12574, "=${": 12575, "ĠSaf": 12576, "Ġsind": 12577, "(buffer": 12578, "åĩ": 12579, ".edu": 12580, ")];Ċ": 12581, "ĠNFL": 12582, "aya": 12583, "Ġdogs": 12584, "Ġdesire": 12585, "ĠMiddle": 12586, "Cart": 12587, "Theme": 12588, "Ġmob": 12589, "Ġdisplayed": 12590, "igit": 12591, "Ġadults": 12592, "\"\"\"": 12593, "Ġdelivered": 12594, "visible": 12595, "\":{Ċ": 12596, "<<<": 12597, "ĠGO": 12598, "scroll": 12599, "xE": 12600, "Ġassigned": 12601, "ĠBool": 12602, "Ġwp": 12603, "Ġcombat": 12604, "ĠHaw": 12605, ".-": 12606, "Ġsupporting": 12607, ".Content": 12608, "ircraft": 12609, "Ġspin": 12610, "ĠCR": 12611, ".my": 12612, "à¥": 12613, "tpl": 12614, "Ġspaces": 12615, "?,": 12616, "ĠSyria": 12617, "Ġpatterns": 12618, "-box": 12619, "Ġframework": 12620, "/%": 12621, "(long": 12622, "Ġteaching": 12623, "ARNING": 12624, "_keys": 12625, "Ġtables": 12626, "UNC": 12627, "inations": 12628, "-weight": 12629, "radio": 12630, "ĠPac": 12631, ".server": 12632, ".CharField": 12633, "ring": 12634, "Ġquote": 12635, "anna": 12636, "Ġwerden": 12637, "Ġcream": 12638, "Ġmachines": 12639, "-k": 12640, "Ġstim": 12641, "ĠStock": 12642, "rick": 12643, "Ġimportance": 12644, "rx": 12645, "Ãµes": 12646, "ÙĪ": 12647, "Ġstroke": 12648, "agra": 12649, "Ġtaste": 12650, "ĠDEBUG": 12651, "Thanks": 12652, "ĠRequired": 12653, "ova": 12654, "Media": 12655, "ĠsiÄĻ": 12656, "(base": 12657, "posts": 12658, "ĠfileName": 12659, "Checked": 12660, "Ġinterrupt": 12661, "Ġ()Ċ": 12662, "python": 12663, "pair": 12664, "Ġcircle": 12665, "Ġiniti": 12666, "_stream": 12667, "Ġcompreh": 12668, "learn": 12669, "Public": 12670, "Ġhumans": 12671, "Ġbringing": 12672, "ographic": 12673, "_layer": 12674, "-like": 12675, "upportInitialize": 12676, "idebar": 12677, "Ġvotes": 12678, "Ġdesired": 12679, "Mask": 12680, "Ġrelation": 12681, ".Instance": 12682, "Help": 12683, "Ġinspir": 12684, "ĠMono": 12685, "ViewModel": 12686, "ometimes": 12687, "ĠbackgroundColor": 12688, "Ġrotation": 12689, "Ġmari": 12690, "/test": 12691, "INSERT": 12692, "Star": 12693, "phy": 12694, "Ids": 12695, "_GET": 12696, "Ġincreases": 12697, "_close": 12698, "_FORM": 12699, "Ġ[âĢ¦]ĊĊ": 12700, "aza": 12701, "TEXT": 12702, "ĠÃ¤": 12703, "ĠVan": 12704, "Ġlights": 12705, "ĠGuide": 12706, "Ġdates": 12707, ".Command": 12708, "aman": 12709, "Ġpaths": 12710, ".edit": 12711, "ĉadd": 12712, "dx": 12713, "Ġreaction": 12714, "ĠBeach": 12715, ".getMessage": 12716, "Environment": 12717, "interest": 12718, "Ġminister": 12719, "Ġreaders": 12720, "ĉF": 12721, "Ġdomestic": 12722, "Ġfiled": 12723, "City": 12724, "Ġmapping": 12725, "ĠDES": 12726, "Ġrepair": 12727, "tics": 12728, "ixture": 12729, "Ġnombre": 12730, ".ISupportInitialize": 12731, "zo": 12732, ".IsNullOr": 12733, "ĠCarolina": 12734, "ĠDer": 12735, "ĠEVENT": 12736, "Ġgest": 12737, "Ġhist": 12738, "resources": 12739, "Ġorphan": 12740, ".Are": 12741, "ĠInvest": 12742, "REFERRED": 12743, ".Logger": 12744, "ĠRoman": 12745, "Ġcultural": 12746, "feature": 12747, "pts": 12748, "bt": 12749, "Ġdot": 12750, "Ġdiam": 12751, "uspend": 12752, "_access": 12753, "(){čĊ": 12754, "Ġsurprise": 12755, "abil": 12756, "Ġvirt": 12757, "Ġbomb": 12758, "aron": 12759, "_IS": 12760, "Ġvast": 12761, "Real": 12762, "epend": 12763, "icted": 12764, "Ġpicked": 12765, "ĠFL": 12766, "ĠRepublicans": 12767, ".zeros": 12768, "Pressed": 12769, "sup": 12770, ".Core": 12771, "Microsoft": 12772, "services": 12773, "agic": 12774, "iveness": 12775, "Ġpdf": 12776, "Ġroles": 12777, "ras": 12778, "Ġindustrial": 12779, "Ġfacilities": 12780, "è¡": 12781, "Ġni": 12782, "Ġba": 12783, "Ġcls": 12784, "ĉB": 12785, "Customer": 12786, "Ġimagine": 12787, "Ġexports": 12788, "OutputStream": 12789, "Ġmad": 12790, "(de": 12791, "){ĊĊ": 12792, "Ġfro": 12793, "hus": 12794, "Ġcommittee": 12795, "ìĿ´": 12796, ",x": 12797, "Ġdivision": 12798, "(client": 12799, "(java": 12800, "optional": 12801, ".Equal": 12802, "ĠPhys": 12803, "ingu": 12804, "Ġsync": 12805, "ĠNa": 12806, "}}</": 12807, "OLUM": 12808, "itÃ©": 12809, "Ġidentifier": 12810, "owed": 12811, "Ġextent": 12812, "Ġhur": 12813, "VA": 12814, "clar": 12815, "Ġedges": 12816, "Criteria": 12817, "Ġindeed": 12818, "inherit": 12819, "ĠNight": 12820, "Ġreporting": 12821, "Ġencounter": 12822, "Ġkinds": 12823, "_pred": 12824, "Ġconsidering": 12825, ".(": 12826, "Ġprotein": 12827, "Typ": 12828, "gricult": 12829, "ĠBall": 12830, "@Component": 12831, "ĠEss": 12832, "ĠRub": 12833, "ulp": 12834, "ĠĠĠĠĠĠĠĠĠĠĠĠĠĠĠĠĠĠĠĠĠĠĠĠĠĠĠĠĠĠĠĠĠĠĠĠĠĠĠĠ": 12835, "itud": 12836, ".attr": 12837, "iente": 12838, "Ġspell": 12839, "ĠJoe": 12840, "ENTER": 12841, "_host": 12842, "itan": 12843, "Ġmatters": 12844, "Ġemergency": 12845, "uated": 12846, "ĠChat": 12847, "={'": 12848, "contri": 12849, "arker": 12850, "iper": 12851, "Ġscheme": 12852, "(stderr": 12853, "Ġ*(": 12854, "ceiver": 12855, ".column": 12856, "Ġmarked": 12857, "_ATTR": 12858, "Ġbodies": 12859, "ĠIMPLIED": 12860, "Gap": 12861, "ĠPOST": 12862, "Ġcorporate": 12863, "Ġdimension": 12864, "Ġcontrast": 12865, "erview": 12866, "ĠERROR": 12867, "Ġcapable": 12868, "Ġadvertising": 12869, "urchase": 12870, "ĠPA": 12871, "ĠFrancisco": 12872, "Ġfacing": 12873, "ãĢĮ": 12874, "git": 12875, "Ġbeer": 12876, "Ġsky": 12877, "download": 12878, "ĠCur": 12879, "mc": 12880, "anny": 12881, ".floor": 12882, "Ġcriteria": 12883, "ĠparseInt": 12884, "`,Ċ": 12885, "Ġaspect": 12886, "Ġbundle": 12887, "Could": 12888, "Ġtank": 12889, "-id": 12890, "Ġhurt": 12891, "Ġbroadcast": 12892, "OKEN": 12893, "ownt": 12894, "nullable": 12895, "Cap": 12896, "Ġalcohol": 12897, "ĠColl": 12898, "ĠHelper": 12899, "ĠAf": 12900, ".method": 12901, "Ġplanned": 12902, "pler": 12903, "ĠSite": 12904, "Ġresc": 12905, "oment": 12906, "ĠJavaScript": 12907, "SERVER": 12908, "Ġrhs": 12909, "eres": 12910, "(\",": 12911, "ifi": 12912, ".fields": 12913, "Ġparking": 12914, "Ġisland": 12915, "Ġsister": 12916, "_Ċ": 12917, "Constraints": 12918, "ĠAust": 12919, "dim": 12920, "_points": 12921, "Ġgap": 12922, "_active": 12923, "Ġvoor": 12924, "ĠPO": 12925, "Bag": 12926, "-scale": 12927, "lambda": 12928, ".Dispose": 12929, "rule": 12930, "Ġowned": 12931, "ĠMedical": 12932, "entries": 12933, "Ġsolar": 12934, "Ġresulting": 12935, "Ġestimated": 12936, "Ġimproved": 12937, "Duration": 12938, "employee": 12939, "$.": 12940, "Actions": 12941, "Like": 12942, ",(": 12943, "(Request": 12944, "%s": 12945, ".Open": 12946, ")\"Ċ": 12947, "Ġpixel": 12948, "Ġadapter": 12949, "Ġrevenue": 12950, "ogram": 12951, "ĠLA": 12952, "ĠMachine": 12953, "ĠØ§": 12954, "Ġfle": 12955, "Ġbike": 12956, "Insets": 12957, "Ġdisp": 12958, "Ġconsistent": 12959, "aÃ§Ã£o": 12960, "gender": 12961, "ĠThose": 12962, "perience": 12963, ".BackColor": 12964, ".play": 12965, "Ġrush": 12966, "Ġaxios": 12967, "Ġneck": 12968, "_mem": 12969, ".PREFERRED": 12970, "_first": 12971, "CB": 12972, "ĠWidget": 12973, "Ġseq": 12974, "har": 12975, "Ġhits": 12976, "ĠâĤ¬": 12977, "Ġcontained": 12978, "rient": 12979, "water": 12980, "LOAD": 12981, "ĠVirginia": 12982, "ĠArm": 12983, "Ġ./": 12984, "Â»": 12985, "_root": 12986, "Ġassistance": 12987, "[],": 12988, "sync": 12989, "Ġveget": 12990, "escape": 12991, "icer": 12992, "boost": 12993, "ĠFloat": 12994, "-W": 12995, "*/čĊ": 12996, "*>": 12997, "Ġ$(\".": 12998, ".pos": 12999, "Ġboys": 13000, "Ġwedding": 13001, "Ġagents": 13002, "=\"_": 13003, "ĠArmy": 13004, "Ġhint": 13005, "vision": 13006, "Ġtech": 13007, "ĠConnect": 13008, "Ġlegend": 13009, "ĠBet": 13010, ".Base": 13011, "Subject": 13012, "Ġlit": 13013, "Remove": 13014, "Ġ\":": 13015, "ĠFinal": 13016, "pearance": 13017, "ĠiTunes": 13018, "Ġparticipants": 13019, "ĠPython": 13020, "Ġbusy": 13021, "iel": 13022, "vertices": 13023, "ĠtemplateUrl": 13024, "ĠClose": 13025, "Img": 13026, "ĠCorporation": 13027, "timestamp": 13028, "Ġextend": 13029, "Ġwebsites": 13030, "Ġpossibility": 13031, "Ð¾ÑĤ": 13032, "ĠkÃ¶": 13033, "Ġmeat": 13034, "Ġrepresentation": 13035, "Ġĉĉ": 13036, "_START": 13037, ".apply": 13038, "ĠValley": 13039, "ĠSuccess": 13040, "Hi": 13041, "Ġnob": 13042, "ĠIEnumerable": 13043, "_select": 13044, "geo": 13045, ".\")Ċ": 13046, "Ġturning": 13047, "Ġfabric": 13048, "(\"\");Ċ": 13049, "Ġperspective": 13050, "éĹ": 13051, "ĠSn": 13052, "Thank": 13053, ";j": 13054, ".Parameters": 13055, "ĉĠĠĠĠĠĠĠĠĠĠĠ": 13056, "Ġfacts": 13057, "Ġunt": 13058, ".instance": 13059, "################################################################": 13060, "-end": 13061, "ĠJOIN": 13062, "ĠHen": 13063, "Ġuri": 13064, "ĠÐ½Ð°": 13065, "ĠInfo": 13066, "Ġconducted": 13067, "ĠÃ¥": 13068, "OURCE": 13069, "Ġwine": 13070, "John": 13071, ".Errorf": 13072, "ĠAge": 13073, "ounded": 13074, "Ġrealize": 13075, "Ġ];": 13076, "Ġsubsequ": 13077, ",m": 13078, "(User": 13079, "iano": 13080, "Ġaccompl": 13081, "isp": 13082, ".std": 13083, "éĩ": 13084, "ĠBed": 13085, ".setAttribute": 13086, "BR": 13087, "keep": 13088, "ĠALL": 13089, "Ġisol": 13090, "amma": 13091, "Package": 13092, "Ġoccasion": 13093, "-success": 13094, "ÐµÐ´": 13095, "ĠLIMITED": 13096, "strip": 13097, "()ĊĊĊ": 13098, "istribution": 13099, "Colors": 13100, "Ġ+:+": 13101,
[...]
